75
fc
ee
c9
68
d3
b0
fb
7b
fd
a1
90
16
dc
c9
6a
00
f5
00
00
00
fc
f2
00
f8
00
00
00
ee
06
13
fb
f3
33
59
09
19
e7
51
01
0d
02
d5
ec
15
47
f8
2e
0f
29
e7
17
cb
f9
18
f5
2d
df
26
10
f7
2e
18
e2
fc
00
e5
21
ff
09
e0
0d
1a
ff
02
f3
00
01
fa
1c
c7
2d
a4
f1
e1
1b
28
32
f3
ee
28
ed
0c
4d
2f
f6
d8
17
d0
36
d1
08
26
3e
d9
f9
3c
3d
13
39
4a
bb
66
bf
4e
a0
6a
22
ac
ba
67
e9
cd
25
f5
e8
d9
61
fe
fd
00
00
00
ef
00
00
0e
00
f0
00
fc
01
fa
fc
f2
0d
27
de
21
f8
f7
fc
e4
db
39
47
01
5b
22
47
ff
0a
0a
dc
13
00
d0
00
15
ff
f4
06
ef
20
00
f0
00
0b
00
00
f2
fe
fd
00
00
ff
00
f3
fb
00
00
00
00
00
ff
11
00
00
00
12
00
fa
fb
00
00
0b
00
00
a5
36
b7
51
d9
f4
07
47
ed
1b
45
54
00
66
3f
0a
23
47
c7
6e
1c
f4
2a
01
f5
df
63
69
02
0b
0f
35
11
3a
34
44
dd
c3
4f
47
b0
1a
f5
26
00
0d
fb
d6
3d
1c
de
48
14
1e
29
6f
f8
fa
1b
60
02
26
2c
cf
3a
00
1a
07
7f
fc
a4
ed
61
17
eb
ef
f2
ba
e3
48
2d
f7
71
95
1d
0f
b6
d5
69
06
0e
00
fc
bc
e3
17
1a
d7
43
ee
52
e5
95
e1
4a
f2
d9
ea
f7
c0
fe
34
f4
3f
1f
51
ea
11
65
23
23
e6
eb
15
01
16
ee
05
ba
f1
cc
3d
cb
16
26
44
27
12
f2
fe
fa
27
3d
c3
0a
00
fa
00
10
08
00
00
00
00
03
01
00
ee
00
00
a2
49
b1
e0
a8
5a
72
53
ae
ee
db
25
00
14
6d
b9
05
ff
01
fe
03
f7
ff
fe
f4
00
01
f3
00
04
03
fa
d1
19
9e
7c
ae
e2
6d
45
e1
40
26
e2
07
52
2e
ea
fa
16
bd
32
d6
4c
55
49
19
df
0b
05
02
f8
35
a3
00
02
36
07
03
18
d4
00
18
e7
f8
00
00
d6
00
23
00
07
06
00
03
fc
02
00
00
00
00
00
00
fd
02
00
e3
30
f7
2d
e6
4a
36
5a
e9
e2
26
2f
0a
4e
4a
e0
f3
f6
ea
e0
00
03
db
00
e8
1a
ea
e3
f9
09
00
e2
fe
f7
26
6a
2b
1d
65
4c
d1
e8
68
44
f8
56
29
0f
