58
0c
f8
14
b5
bd
92
40
17
01
13
ba
f7
43
d5
0c
fd
00
1c
00
ff
00
01
00
02
02
02
0c
01
00
08
ff
07
5a
ee
f5
b0
d8
a6
49
10
1c
e7
d3
ff
2e
ce
d6
48
23
0b
fb
07
fb
09
fe
5f
ee
e8
fe
ed
5a
03
fe
34
61
03
fc
d8
ef
f7
12
1f
01
e9
e1
2e
f6
00
e6
00
00
00
00
00
00
00
00
00
00
fd
00
00
03
00
00
00
00
0b
ff
1b
00
f6
00
00
fc
0f
06
ff
fe
01
fd
00
00
00
05
00
00
00
00
00
04
00
00
00
00
00
00
45
06
d5
f5
16
12
05
24
46
e3
22
04
ee
24
37
03
00
00
ff
fd
00
00
00
00
00
00
00
00
00
fe
02
00
00
ff
00
00
01
fb
00
fb
09
ff
00
00
00
ff
00
ff
67
65
fe
f4
e0
e4
29
4c
e9
e1
ff
dc
ea
64
a7
e9
62
20
19
01
bc
d9
d0
58
50
df
eb
d8
0e
1f
a1
e7
6e
37
fb
02
e5
f9
08
58
62
e6
eb
fd
e4
31
11
f7
37
58
fe
ff
d1
cb
d2
37
18
17
10
f2
06
24
ad
e9
0d
ee
31
1a
1f
01
10
01
01
00
12
f5
ff
f7
d5
ff
00
00
00
00
00
00
00
01
03
00
04
fe
00
00
00
fc
fd
00
00
00
00
00
00
00
00
05
00
00
01
05
00
01
9e
cf
f2
fd
0b
3a
69
d3
04
ff
f8
1b
14
bb
66
25
0b
05
01
fc
1b
d5
ee
65
1e
e7
df
bf
dc
5d
af
d6
d1
c9
01
ff
4f
44
7f
da
90
fe
01
41
28
ce
7b
2a
50
6f
ef
13
c2
d1
bb
61
5e
fe
00
ed
f6
15
f0
da
01
00
00
00
00
00
00
04
00
00
01
00
00
00
00
00
15
65
ec
f9
2e
09
13
3f
44
08
fe
05
f9
63
22
16
6c
28
e8
09
cf
df
e7
35
0e
fd
21
1b
07
6e
1f
e4
f2
e8
02
ff
34
38
2f
e9
f9
fe
11
38
1d
e9
37
43
74
59
f6
fd
ec
d2
e9
37
18
2a
e9
da
1e
06
96
db
fb
00
1e
ff
f6
00
10
fb
00
fd
f5
ff
02
06
00
fb
03
fd
0b
00
f5
00
02
ff
00
fd
00
00
00
00
ff
00
03
fd
03
00
00
00
00
00
00
00
00
fc
00
00
00
00
1d
ce
03
ed
13
fc
09
00
f7
00
e6
fd
f8
e5
f0
fc
d5
d9
18
01
75
3f
25
c0
8e
fd
19
6e
05
a7
2b
42
