02
da
13
d1
f4
00
08
00
0d
00
fb
d6
d8
04
eb
e2
00
06
4d
0a
fb
ed
01
1f
09
d6
e0
f0
fe
03
d5
f3
0f
d8
e3
21
41
00
e3
01
43
00
07
da
3f
4b
05
fc
00
05
05
23
af
1f
fe
48
44
c7
47
07
0b
f2
19
f5
34
fe
43
69
e0
00
00
ff
2c
00
04
48
40
0b
05
20
00
13
a5
38
9b
2e
ff
36
13
d7
01
11
f3
f1
05
cb
d5
1c
fc
53
f4
00
09
00
18
00
f4
31
05
64
0d
10
00
ef
c7
fe
cb
3e
fe
2a
45
ee
00
16
f4
13
11
e5
01
21
41
59
37
00
ff
00
2b
00
fa
50
05
35
28
11
00
e9
12
13
15
ed
f8
06
36
e2
63
e6
0b
f3
d0
08
36
2a
21
23
04
00
0d
00
2a
00
f4
62
45
fe
55
08
00
0c
aa
0b
de
f4
fd
03
2a
ef
fd
11
04
0d
0b
e4
48
fc
3b
42
27
00
d2
01
27
00
04
44
55
64
00
03
00
0a
cc
5e
de
0f
0d
10
61
07
72
0d
f7
0a
e8
ee
03
02
34
2f
10
00
ec
00
13
00
f9
35
08
4e
51
23
00
eb
a0
41
b6
35
f8
2d
1f
dd
60
ee
05
07
15
92
0e
fe
da
2a
e7
00
0a
00
2d
00
f7
f7
f7
dc
d9
1d
00
f6
1f
ef
bb
c6
00
3d
ec
08
d7
00
fe
fd
1b
ba
b4
fd
06
16
f1
00
ef
00
16
00
07
cd
f7
dd
10
db
00
12
ee
ee
f7
08
fd
00
23
1c
ce
07
00
02
da
d5
2f
0b
db
ee
37
00
eb
00
19
00
fb
0f
1e
2a
19
01
00
f8
0a
ed
05
e8
ff
e7
f2
19
05
f9
ff
08
11
1d
10
10
15
e3
ed
00
ea
00
e0
00
0c
d9
0b
18
22
ea
00
e8
40
ff
1f
0d
00
34
cf
20
03
fd
fd
01
f3
d8
c8
03
e2
2e
35
00
1a
00
2f
00
09
2f
1c
3a
3c
02
00
18
36
df
d7
19
08
4a
2b
07
1c
ff
ff
f0
f2
04
e7
e5
f0
10
11
00
fa
00
42
00
02
ed
03
21
25
0b
00
0b
b8
22
af
e2
ff
5b
45
f9
46
00
03
f1
e1
f0
23
02
2c
47
1d
00
fd
00
46
00
f2
00
4c
32
e9
01
00
fc
e6
10
21
3a
fe
4d
0e
fd
02
fe
05
fb
f3
2c
0e
dc
04
41
28
00
12
00
1d
00
00
0a
2d
3a
1e
03
00
01
f8
35
03
2d
00
52
27
f3
1c
00
fe
f8
ee
20
0e
f1
19
05
0b
00
14
00
48
00
f8
f7
3e
f6
2b
de
00
fa
07
20
e4
e8
00
f7
d9
2b
dd
ff
fe
01
f9
14
d1
0a
d9
fe
1e
00
fa
00
0c
00
fa
15
f1
0c
e2
f8
00
fd
21
ca
5a
fe
00
de
0a
2c
d1
ff
ff
05
0c
43
af
01
bb
bf
dd
00
13
00
2c
00
ff
ad
ee
ce
ec
e6
00
01
25
f5
2d
b4
f7
00
bf
1c
ae
00
fd
03
f3
5a
c5
09
14
16
01
00
fe
00
19
00
04
b3
ed
f0
0a
ef
00
fc
2c
e8
6d
ae
fe
02
b0
13
b3
00
02
06
0e
65
bb
f8
dd
f4
26
00
ee
00
21
00
fe
19
d5
0a
ec
00
00
f9
f8
dd
16
08
03
06
21
02
2a
00
01
02
f1
0f
15
14
1f
29
0f
00
fb
00
28
00
ff
11
08
39
0e
ea
00
08
eb
f9
ed
1b
ff
18
f5
f9
f7
00
00
04
00
e7
30
eb
19
2d
2c
00
16
00
26
00
00
e7
2e
46
46
e4
00
00
f7
16
1d
1f
ff
13
18
f6
ed
00
00
ff
05
e6
f0
01
2c
4b
3c
00
ec
00
04
00
fe
03
27
60
54
fb
00
03
c5
45
e7
1b
00
1b
48
dd
54
ff
ff
ff
0a
bb
1d
f6
30
16
1e
00
0b
00
35
00
01
fc
09
f1
1c
dc
00
fa
d5
3c
d2
f4
fc
18
f5
f8
22
00
01
fd
03
f2
57
14
06
0c
33
00
19
00
05
00
00
58
64
6a
61
ed
00
f8
a0
2e
81
3e
fc
63
07
e4
24
00
02
00
fd
bc
5b
f8
6a
52
11
00
13
00
2b
00
00
34
33
30
59
f8
00
f9
ee
27
aa
52
08
31
40
cf
2a
00
02
ff
05
f0
43
0b
fe
19
f9
00
0b
00
0a
00
fc
48
3a
33
fb
e2
00
f2
f5
13
c3
34
fb
3f
14
e9
1c
00
00
ff
11
d6
3e
f6
4a
0e
09
00
f9
00
34
00
01
38
40
07
1b
13
00
06
e0
21
e5
3d
00
3f
3d
ef
23
00
02
02
06
b3
26
08
12
47
07
00
03
00
04
00
ff
f1
ff
07
fc
f3
00
fa
ff
21
ed
04
04
21
2c
e7
11
00
00
fd
0e
d8
d4
fb
3e
3e
1f
00
01
00
33
00
fe
28
3c
34
00
0a
00
ff
2e
02
f1
10
ff
0c
ee
f4
0c
00
ff
02
08
01
e1
f3
3c
08
11
00
05
00
15
00
ff
0b
13
2b
0b
01
00
03
ee
0e
0f
22
fe
4e
34
f6
06
00
ff
ff
f7
f3
e4
ee
02
12
1d
00
06
00
15
00
00
fb
10
fd
49
00
00
03
e7
25
08
32
fb
32
24
f9
2f
00
fe
00
10
c3
e0
fe
10
16
fa
00
0a
00
2e
00
01
0a
0b
dc
18
e8
00
02
21
12
1c
f7
09
24
1c
f9
05
00
01
00
0f
01
b5
06
17
f6
10
00
01
00
06
00
02
e5
fd
d4
09
02
00
00
3b
fc
1a
c4
f6
1e
f4
1f
c9
00
00
00
ff
fe
c2
ef
0b
00
04
00
f5
00
e7
00
ff
af
d1
aa
b4
ef
00
02
6b
b6
3f
e9
fe
05
d7
22
f4
00
01
00
fe
47
d7
f2
0a
e2
eb
00
05
00
fc
00
00
b6
ef
e7
e2
07
00
fe
57
be
1e
bb
ff
e1
cd
35
f9
00
02
00
f1
29
01
fa
fa
cc
c9
00
fc
00
e9
00
00
0b
fd
c0
cb
11
00
ff
5e
ba
6d
f6
fb
06
c2
39
ec
00
00
00
06
42
bc
fe
a1
ba
f3
00
fe
00
cc
00
ff
cf
aa
de
e3
00
00
00
5b
d9
37
c1
03
b3
bd
3c
c0
00
ff
00
f7
73
9c
fd
b4
a2
c0
00
01
00
fa
00
ff
bb
9a
a0
b0
fa
00
01
38
ca
48
b7
ff
e1
b0
48
c6
00
01
00
f8
6c
f0
03
e5
fb
05
00
06
00
23
00
00
ed
11
eb
1a
fe
00
fe
07
f4
07
00
04
0e
e4
21
eb
00
00
00
f6
20
ee
f8
05
06
1c
00
fe
00
01
00
00
28
39
f3
33
0b
00
ff
f2
fc
13
27
05
27
28
04
f0
00
00
00
fb
ed
dd
fa
eb
11
0a
00
fa
00
fb
00
00
02
f0
02
20
0c
00
00
36
13
20
06
fe
27
fa
09
09
00
00
00
05
27
08
fb
e1
f6
fe
00
f9
00
1a
00
00
f7
1d
25
ea
fa
00
00
12
00
49
e8
fb
13
07
21
07
00
00
00
ff
f3
15
fe
17
fa
11
00
06
00
19
00
00
20
17
0e
24
f8
00
00
2d
f7
4b
fe
00
f7
f8
1e
e0
00
00
00
05
35
1e
fb
05
1c
ed
00
00
00
20
00
00
d5
09
d8
e2
fb
00
00
02
03
1b
f4
fd
f9
01
1d
11
00
00
00
06
ee
21
fa
14
1d
ff
00
06
00
fe
00
00
da
e2
25
ff
00
00
00
3d
e0
18
ea
00
09
13
15
d5
00
ff
00
09
18
24
f9
ee
fd
19
00
fb
00
0b
00
00
0d
35
06
07
fb
00
00
eb
f2
f1
ec
02
22
01
1f
f5
00
00
00
00
19
01
04
f2
08
fd
00
ff
00
f9
00
00
e8
c5
e3
ca
f4
00
00
4c
da
4f
e5
fe
21
f6
39
fb
00
00
00
ff
3d
fc
ff
f9
f7
06
00
01
00
f3
00
00
17
ef
e2
ce
04
00
00
3b
e7
0c
ea
03
07
00
1c
fa
00
00
00
0a
2b
cb
06
08
12
fd
00
05
00
fc
00
00
d6
17
d8
06
f1
00
00
fa
de
21
d5
02
f4
da
19
fd
00
00
00
02
32
07
fd
04
03
f2
00
fe
00
14
00
00
fb
f0
f7
15
08
00
00
0a
d6
36
ea
03
e8
df
2d
e0
00
00
00
00
54
1a
f5
ff
e6
07
00
06
00
04
00
00
0e
e7
eb
0e
f9
00
00
18
ef
28
db
f9
1d
dd
16
ef
00
00
00
00
0d
1c
0c
14
27
22
00
01
00
20
00
00
1c
0e
39
43
f7
00
05
18
0e
00
22
00
3b
fd
02
f8
00
01
ff
03
14
f7
03
fe
12
01
00
fc
00
06
00
00
ef
31
01
3e
08
00
03
cd
1e
07
1f
ff
09
0f
09
0e
00
ff
01
09
d1
e8
f6
ec
2b
16
00
fc
00
18
00
01
21
20
30
24
f6
00
00
c3
f6
e6
14
fc
14
19
f8
1e
00
00
00
08
e0
26
05
04
ef
18
00
fa
00
08
00
00
e9
1e
f5
ff
f8
00
00
1b
01
00
06
00
32
1b
05
09
00
00
00
03
25
27
fd
f8
08
0d
00
f8
00
1c
00
00
e0
fc
10
0c
f8
00
00
17
06
f2
0b
00
f5
04
0e
e9
00
00
00
07
16
ef
fe
23
16
fe
00
fe
00
15
00
00
1e
ec
09
f7
f6
00
00
08
e2
09
f7
00
0d
ee
08
d1
00
00
00
ff
19
cd
fd
10
db
e3
00
fa
00
0d
00
00
c6
05
da
f8
fd
00
00
29
ea
29
c3
03
12
d7
13
ca
00
00
00
06
37
c3
00
b5
e7
c5
00
00
00
e0
00
00
b9
d9
bd
be
f8
00
00
2e
bb
55
a5
02
da
b6
2f
db
00
00
00
06
6e
b7
01
bb
d6
db
00
00
00
04
00
00
ae
e9
e2
e6
09
00
00
54
cc
27
a6
fe
c7
cd
34
b5
00
00
00
fd
50
c8
ff
14
e0
03
00
00
00
09
00
00
ed
f6
f1
0f
f4
00
00
10
c8
3d
ea
ff
ff
eb
1c
e4
00
00
00
03
43
b2
00
e7
b9
d2
00
02
00
dc
00
00
c9
eb
e4
c1
07
00
00
27
cd
53
bb
fe
f0
c5
33
c4
00
00
00
00
54
dc
fa
cd
00
f5
00
fe
00
05
00
00
c1
d8
e5
06
01
00
00
1b
c6
32
dd
ff
ee
bc
26
cc
00
00
00
02
2a
fc
00
f2
0e
07
00
05
00
12
00
00
e9
0a
0d
15
03
00
00
f1
f0
04
e6
00
1d
ff
11
ea
00
00
00
00
17
0d
fb
4b
29
21
00
00
00
27
00
00
06
57
2f
31
f6
00
00
b6
32
c1
39
01
42
34
f1
20
00
00
00
fb
cc
38
02
2a
41
3d
00
ff
00
27
00
00
51
3a
3b
58
05
00
00
c8
34
b0
4e
00
3b
3d
e3
58
00
00
00
fa
ae
55
05
58
58
49
00
01
00
1a
00
00
37
77
5a
41
04
00
00
b8
29
92
53
fd
1d
4f
de
46
00
00
00
fe
b0
1e
ff
14
1e
13
00
ff
00
23
00
00
47
1c
4a
41
fd
00
00
e1
14
ca
25
ff
44
1e
ed
2f
00
00
00
fe
d2
17
04
0a
1e
1e
00
fe
00
19
00
00
3e
45
1b
35
03
00
00
a9
35
b1
3e
01
17
20
e6
15
00
00
00
00
c1
3e
ff
50
21
24
00
03
00
16
00
00
37
41
21
3f
fb
00
00
e3
26
b1
2f
01
37
33
dd
20
00
00
00
00
eb
05
00
3b
03
22
00
fe
00
20
00
00
fd
38
2b
3b
05
00
00
ed
0b
e9
1c
02
0b
07
f4
26
00
00
00
00
09
36
fb
29
22
28
00
fd
00
17
00
00
21
3e
18
23
fd
00
00
c5
19
c9
12
ff
1a
11
00
0e
00
00
00
02
f1
03
00
27
21
1a
00
fd
00
fa
00
00
0e
31
0d
02
03
00
00
0f
f9
dd
e9
fe
0e
fb
10
e0
00
00
00
fa
0c
04
fd
39
10
09
00
00
00
11
00
00
24
17
11
1d
07
00
00
db
1e
f2
0b
fb
28
05
fa
14
00
00
00
fc
dd
2a
03
2c
3a
3d
00
fe
00
22
00
00
3f
6b
5d
65
f6
00
00
c1
40
9e
34
fd
44
29
e8
1d
00
01
00
fd
c3
10
02
2f
18
2a
00
fc
00
0e
00
00
11
40
2e
34
f6
00
00
c4
18
f1
1f
05
32
0a
f3
21
00
00
00
05
cb
1d
04
1f
fe
20
00
fc
00
17
00
00
2e
23
f0
fc
ff
00
00
ee
fb
1b
07
02
f2
0e
06
20
00
00
00
05
0c
ee
04
25
07
fc
00
02
00
0a
00
00
18
15
f3
df
fa
00
00
01
fe
f7
e6
fe
fa
ff
18
07
00
00
00
00
08
01
00
d5
ef
fb
00
03
00
0a
00
00
13
d3
d7
fd
06
00
00
30
e3
42
e0
02
00
eb
26
d8
00
00
00
ff
33
05
03
db
f2
07
00
fc
00
04
00
00
02
01
1c
01
08
00
00
ea
02
07
fb
01
18
f7
13
1a
00
00
00
fd
ea
ef
fb
fb
05
f9
00
ff
00
00
00
00
01
f5
dd
0a
08
00
00
12
fe
31
f2
00
f0
e7
22
02
00
00
00
00
1b
c7
fd
dd
ef
db
00
00
00
fc
00
00
f0
cb
f0
db
ff
00
00
47
c5
45
ce
fd
e2
cf
37
c0
00
00
00
02
4e
0a
03
ea
e5
e8
00
ff
00
f0
00
00
06
e7
ce
f8
06
00
00
1b
d3
12
ef
03
ed
cb
28
d1
00
01
00
01
47
e9
ff
19
16
f3
00
00
00
09
00
00
de
1c
f2
13
02
00
00
12
0f
f4
fe
00
20
f3
09
13
00
00
00
00
13
1b
02
08
01
f9
00
02
00
13
00
00
f9
16
e8
15
fb
00
00
df
00
e8
06
ff
0d
03
10
e7
00
00
00
03
f0
01
fd
21
16
f6
00
02
00
17
00
00
17
2e
ee
24
fe
00
00
05
f7
dc
02
00
09
fe
0a
00
00
ff
00
04
03
19
fc
f9
f7
14
00
02
00
ff
00
00
f5
31
0c
27
01
00
00
e7
10
d3
fe
fd
11
18
04
1d
00
00
00
01
07
21
fc
19
0a
17
00
04
00
0a
00
00
1b
08
2f
13
f8
00
00
f9
f7
f2
1b
ff
1f
15
02
07
00
00
00
ff
06
0b
01
1f
1a
20
00
fe
00
18
00
00
ff
47
26
13
05
00
00
eb
16
e1
2d
04
36
12
fa
34
00
00
00
03
d7
1f
fe
4d
23
2d
00
03
00
20
00
00
0c
18
23
22
01
00
00
d6
38
a2
28
04
28
1d
e8
49
00
01
00
00
ba
58
fc
34
49
3d
00
fe
00
2d
00
00
3a
58
6b
36
00
00
00
b6
3d
aa
5c
fd
4b
4b
d7
58
00
00
00
fd
cc
32
02
71
1e
46
00
fc
00
20
00
00
3e
3c
38
61
05
00
00
ce
45
af
51
02
3b
40
e3
4e
00
ff
00
ff
ba
0d
fd
10
37
1c
00
ff
00
23
00
00
11
3f
42
1b
f8
00
00
da
17
ba
25
00
13
37
f2
25
00
00
00
fb
e9
05
01
00
0a
1a
00
fe
00
15
00
00
2a
3a
33
09
f9
00
00
fa
09
c9
0a
04
10
15
03
2f
00
00
00
fc
cf
f6
fd
04
1b
05
00
fe
00
14
00
00
28
2e
3e
2d
00
00
00
ec
09
c9
20
04
11
0f
f9
16
00
01
00
04
e2
0f
fd
01
09
05
00
ff
00
1d
00
00
30
2c
25
31
07
00
00
ca
12
d2
04
00
0e
01
02
03
00
00
00
05
03
ff
ff
25
19
21
00
00
00
13
00
00
04
20
29
1d
fe
00
00
df
0b
eb
23
fa
27
15
00
27
00
00
00
fd
f1
0b
00
2d
23
24
00
00
00
27
00
00
2c
3a
36
21
02
00
00
dd
23
bd
2f
fd
38
3b
f4
2b
00
00
00
03
e7
4a
fe
5c
34
30
00
01
00
2c
00
00
32
71
2b
63
03
00
00
a1
4d
b5
4b
04
4d
3b
e1
5d
00
00
00
fd
b2
28
fd
2c
53
30
00
03
00
1c
00
00
40
4a
4a
58
f9
00
00
b3
4b
a9
60
03
3f
38
d8
51
00
00
00
03
b0
34
fd
5c
47
2e
00
ff
00
24
00
00
1b
57
3a
32
08
00
00
b1
44
9e
4a
fe
2b
26
ec
4c
00
00
00
05
cc
40
03
69
4f
35
00
00
00
1b
00
00
43
4b
45
23
fa
00
00
96
4a
ca
37
01
41
4a
e9
60
00
00
00
fa
a2
25
00
28
3d
2e
00
fe
00
32
00
00
28
75
5f
4b
f7
00
00
c9
50
94
5c
00
31
55
e1
34
00
00
00
02
bc
24
ff
42
4d
3b
00
fd
00
30
00
00
56
6b
74
39
06
00
00
ab
5c
8a
58
00
46
3d
d8
4c
00
00
00
fd
8b
44
ff
34
1e
23
00
ff
00
0d
00
00
11
25
41
4d
f9
00
00
a8
3f
b6
40
00
2f
44
f1
3e
00
00
00
ff
b1
15
02
66
25
0d
00
00
00
10
00
00
13
39
2f
4e
07
00
00
c0
30
ab
36
01
19
40
e2
4c
00
00
00
fd
d0
11
01
2b
3c
15
00
01
00
24
00
00
3a
3d
23
16
ff
00
00
d5
38
b1
35
01
3f
3c
f9
38
00
00
00
05
e1
40
fe
19
48
2d
00
ff
00
1a
00
00
41
52
37
55
02
00
00
b7
46
b5
53
01
2b
45
e6
4d
00
00
00
fd
d2
16
fe
59
4c
29
00
01
00
2b
00
00
19
37
4f
2c
fc
00
00
d6
33
a2
49
fd
44
2f
e6
39
00
00
00
fc
cb
28
ff
4a
26
2b
00
fd
00
28
00
00
1f
51
57
43
f8
00
00
9f
34
b2
4e
01
36
42
f3
45
00
00
00
fe
c1
21
ff
24
3e
0d
00
01
00
22
00
00
4b
4b
45
3e
01
00
00
a1
2b
b4
2a
ff
18
31
ee
1f
00
00
00
00
ba
3d
03
4f
3f
16
00
00
00
14
00
00
0b
41
43
11
fb
00
00
ab
29
da
33
00
12
3b
f6
2e
00
00
00
01
ca
19
fe
03
34
0f
00
01
00
0d
00
00
09
14
23
2f
00
00
00
ee
29
b8
22
01
10
17
f9
39
00
00
00
fc
cc
26
01
3b
14
05
00
01
00
03
00
00
21
1a
ff
fe
05
00
00
d2
05
dc
0a
fe
1d
07
03
15
00
00
00
00
f0
11
00
00
00
f3
00
00
00
0c
00
00
f9
09
14
0a
fd
00
00
f8
13
e5
16
00
03
14
03
01
00
00
00
00
d6
1d
00
33
14
0f
00
00
00
17
00
00
25
f4
fe
f5
03
00
00
fe
09
e1
19
03
0e
2a
fe
2a
00
00
00
04
f6
29
fd
11
15
09
00
00
00
0a
00
00
09
0e
26
01
fd
00
00
00
05
ce
13
01
1c
0a
02
1b
00
00
00
fe
e3
02
fe
e4
10
fc
00
ff
00
15
00
00
16
0a
fd
11
fd
00
00
ff
10
07
01
fd
f1
0f
08
fd
00
00
00
00
0e
15
ff
e2
f5
f0
00
00
00
fa
00
00
07
e4
fe
fb
05
00
00
0a
ec
1a
f2
ff
e4
f4
1c
00
00
00
00
fe
20
14
03
de
01
f3
00
ff
00
01
00
00
fa
d5
08
f8
fc
00
00
ee
f1
10
ff
00
f2
ed
15
e6
00
00
00
ff
24
05
01
02
28
06
00
ff
00
02
00
00
09
1a
09
15
02
00
00
cc
0d
d9
18
ff
26
1a
f4
15
00
00
00
fd
dd
03
00
24
25
0e
00
00
00
03
00
00
2e
10
2e
f2
00
00
00
d4
0d
e5
2a
ff
f9
22
ee
11
00
00
00
ff
ec
17
02
2d
01
fc
00
00
00
10
00
00
2d
fb
fd
15
fd
00
00
e4
0f
ea
09
01
fa
1c
fb
0d
00
00
00
ff
e6
2e
ff
e5
f3
0d
00
00
00
fc
00
00
1f
f3
03
0d
00
00
00
f0
13
e6
09
fe
0f
07
fd
16
00
00
00
fe
fd
20
03
23
10
03
00
ff
00
06
00
00
03
e2
12
f8
01
00
00
e3
00
e8
0f
02
f6
0a
f7
04
00
00
00
00
f3
15
ff
14
25
0e
00
01
00
06
00
00
36
18
1e
1b
fd
00
00
e8
18
f2
1c
fd
fd
11
f5
2d
00
00
00
02
d8
fe
ff
05
17
fc
00
01
00
0b
00
00
2d
0b
16
16
fd
00
00
d8
14
e2
0e
03
01
05
fb
2c
00
01
00
fd
01
0b
ff
e4
f7
fe
00
00
00
0f
00
00
0b
f0
e8
df
ff
00
00
dc
05
13
fb
ff
ea
04
06
0b
00
00
00
04
1d
fc
ff
d8
0e
fb
00
00
00
05
00
00
08
f3
f2
fb
00
00
00
e7
09
05
f8
ff
e9
fe
01
19
00
00
00
00
ff
24
fe
07
07
06
00
ff
00
03
00
00
18
ed
21
f7
ff
00
00
fe
0b
d5
fd
03
0d
17
01
f7
00
00
00
ff
f1
01
00
1a
f9
fe
00
01
00
0c
00
00
f2
f2
fc
f7
fe
00
00
eb
f8
ee
f8
ff
fc
06
13
03
00
00
00
fd
25
fe
02
e4
ee
ef
00
00
00
f8
00
00
09
de
f8
d8
fb
00
00
0f
ea
fb
ec
00
f8
00
0e
0f
00
00
00
fd
29
2e
ff
f9
25
f9
00
01
00
0f
00
00
21
fd
12
f0
04
00
00
cc
09
d8
0f
fe
0a
15
f9
34
00
00
00
00
dc
2c
02
34
2c
1c
00
02
00
08
00
00
23
07
2c
21
ff
00
00
bf
24
b5
1b
02
08
22
e9
2a
00
00
00
ff
e4
31
ff
33
23
0a
00
01
00
21
00
00
1f
38
4b
30
fd
00
00
c4
3d
c8
3a
ff
2b
24
df
4c
00
00
00
00
b7
3e
fd
25
22
2e
00
00
00
0e
00
00
41
0b
25
19
04
00
00
bb
38
a2
46
fe
3b
2c
dc
44
00
00
00
fe
cd
24
01
2d
39
12
00
01
00
12
00
00
53
24
4b
1c
01
00
00
c9
37
c7
40
00
30
3b
dc
50
00
00
00
03
a8
25
ff
20
29
17
00
00
00
20
00
00
32
1f
3f
16
01
00
00
d8
3a
be
39
00
11
1e
e2
43
00
00
00
fd
d9
38
ff
20
20
14
00
00
00
15
00
00
0f
0a
2e
08
fe
00
00
c8
1c
d3
33
02
02
2b
e6
27
00
00
00
fe
d6
18
01
29
29
16
00
00
00
0f
00
00
31
0f
39
1b
00
00
00
b5
30
ab
2e
00
15
35
e4
36
00
00
00
01
cb
1c
ff
0d
11
ff
00
00
00
05
00
00
32
ef
2e
12
00
00
00
d0
1c
de
21
00
01
16
f3
2b
00
00
00
ff
d8
09
ff
06
0b
12
00
01
00
0d
00
00
3a
f4
1d
11
03
00
00
c6
1a
dd
15
00
0b
13
f6
0c
00
00
00
00
e0
03
02
e9
10
0b
00
00
00
04
00
00
10
ec
04
10
fe
00
00
e3
23
e6
1e
01
f7
1d
ef
08
00
00
00
00
cc
1f
ff
33
24
fc
00
00
00
01
00
00
0f
0f
19
1d
04
00
00
e4
11
ce
1f
00
0c
19
f3
28
00
00
00
00
e7
ed
ff
dc
04
06
00
00
00
05
00
00
fe
ef
ed
fa
fe
00
00
e2
00
0e
0a
ff
00
0a
06
e9
00
00
00
02
f1
0d
ff
db
0b
f0
00
00
00
f9
00
00
1a
06
f5
dd
01
00
00
ea
07
07
06
01
f6
f5
ff
07
00
00
00
ff
f8
3c
00
f7
04
00
00
00
00
12
00
00
30
fa
10
02
01
00
00
b8
17
db
2d
00
13
25
e9
21
00
00
00
ff
e2
38
00
21
31
09
00
00
00
16
00
00
1d
f6
10
27
fc
00
00
ed
2c
f5
21
00
22
1e
e8
40
00
00
00
00
ce
03
01
e4
f8
01
00
00
00
ff
00
00
2e
ff
12
06
ff
00
00
d2
09
d2
27
00
12
0b
f3
2c
00
00
00
00
05
0b
00
01
0e
14
00
01
00
17
00
00
14
ff
30
04
00
00
00
cf
28
d0
2e
00
0b
1e
ec
41
00
00
00
ff
d7
3c
ff
2f
0c
20
00
00
00
1e
00
00
2f
26
0f
13
01
00
00
b6
30
c8
25
00
30
3b
e4
35
00
00
00
03
d2
1f
00
f0
f7
08
00
00
00
07
00
00
0c
1b
25
ff
fe
00
00
d3
10
f9
1f
00
19
28
f2
30
00
00
00
01
e0
fc
fe
1e
12
fd
00
00
00
f6
00
00
e9
f0
ec
0b
ff
00
00
09
05
f5
01
00
ff
f6
06
00
00
00
00
01
f5
0d
01
0c
f3
00
00
00
00
08
00
00
f8
f3
d9
e3
01
00
00
0f
e8
12
ed
00
ec
00
1a
d9
00
00
00
00
3d
d0
01
d2
c1
d3
00
00
00
f6
00
00
c4
dd
da
bb
01
00
00
39
c6
30
e0
00
fc
e6
29
bb
00
00
00
00
47
cb
fe
c8
d1
f3
00
00
00
00
00
00
ec
b0
bd
e2
00
00
00
20
ce
48
da
00
d1
c1
2a
c1
00
00
00
00
38
db
00
d1
d0
d1
00
00
00
f9
00
00
cf
ca
ce
c8
ff
00
00
40
d4
27
e7
00
f4
cd
25
f1
00
00
00
02
27
1b
01
de
ea
d9
00
00
00
03
00
00
e6
d9
d5
d1
03
00
00
3c
03
4c
f9
00
f0
fe
16
04
00
00
00
ff
24
22
02
e6
ed
fd
00
00
00
13
00
00
e7
e3
f4
fb
03
00
00
e6
fc
14
0d
00
0c
15
07
ff
00
00
00
00
10
14
01
03
e8
f9
00
01
00
12
00
00
f2
f1
df
fd
fe
00
00
18
11
2d
10
00
f1
09
09
1a
00
00
00
01
1e
26
fe
e5
05
f0
00
00
00
1c
00
00
fc
dd
07
0a
fe
00
00
1a
24
fa
0e
00
0f
1b
fb
20
00
00
00
ff
e8
3f
fe
f3
1f
ff
00
01
00
05
00
00
04
0a
1f
ef
fd
00
00
0f
28
ec
22
01
1b
0a
f4
15
00
00
00
01
08
08
ff
05
fd
fd
00
01
00
08
00
00
1b
e3
f3
e3
ff
00
00
15
11
e1
23
00
12
0b
fd
1b
00
00
00
00
ec
0d
01
dd
ec
e5
00
00
00
f0
00
00
fc
df
e1
cf
00
00
00
2a
e7
43
e3
ff
dd
df
16
d9
00
00
00
00
10
08
ff
c5
d4
d3
00
00
00
f7
00
00
fe
ef
bb
cf
01
00
00
12
d7
25
e9
00
ea
da
1a
d1
00
00
00
00
3c
f2
00
c6
db
f4
00
00
00
f1
00
00
d8
ec
cd
cf
00
00
00
3f
f1
29
e8
00
d3
e8
17
cb
00
00
00
00
31
ce
00
d5
ca
da
00
00
00
f0
00
00
df
dc
ec
d0
ff
00
00
13
ed
32
e8
00
f9
d6
23
cd
00
00
00
00
42
eb
00
d9
ba
d7
00
00
00
eb
00
00
dd
de
ca
e7
ff
00
00
5b
c9
56
d7
00
eb
db
2f
cf
00
00
00
01
22
ea
ff
f8
e5
db
00
00
00
01
00
00
f6
eb
c4
c8
ff
00
00
34
d3
1c
e4
00
dd
ef
20
c7
00
00
00
01
20
e6
01
e4
e9
db
00
00
00
f4
00
00
c8
d5
bf
c2
fe
00
00
39
e1
51
df
00
e0
cc
28
cf
00
00
00
01
3b
c7
ff
dc
b4
e4
00
00
00
ed
00
00
de
e3
c7
d4
00
00
00
41
d1
60
c4
00
c7
ba
35
ad
00
00
00
00
4d
f8
ff
d1
e3
cf
00
00
00
ea
00
00
d2
cd
c1
d3
02
00
00
52
d1
66
dd
00
e6
c2
2e
cc
00
00
00
00
36
ca
00
cb
d8
d6
00
00
00
e6
00
00
b4
cc
b6
c8
00
00
00
5e
be
4d
c1
00
c8
bc
33
aa
00
00
00
01
50
af
01
bc
b0
d6
00
00
00
f2
00
00
df
c0
c4
bf
ff
00
00
3f
ad
68
b4
00
e7
bf
44
b7
00
00
00
00
73
e4
01
c6
d5
e7
00
00
00
e2
00
00
ce
bd
ab
e2
ff
00
00
2e
b9
6d
b5
00
da
b6
45
a2
00
00
00
01
3f
e9
ff
b3
d5
dc
00
00
00
fb
00
00
b6
ee
c5
d3
00
00
00
27
cc
42
c4
00
e5
cb
39
ca
00
00
00
ff
50
e5
00
e5
c3
df
00
00
00
fb
00
00
bd
b9
ac
d5
fe
00
00
32
d5
69
dc
00
d8
da
38
c1
00
00
00
00
43
03
01
cc
d6
e9
00
00
00
f6
00
00
d7
cd
b2
d5
ff
00
00
2a
dc
50
de
00
fa
df
26
c3
00
00
00
00
44
ed
00
e1
cc
f4
00
00
00
eb
00
00
dc
dd
d9
ec
00
00
00
0e
d7
3a
de
00
fc
da
1d
e8
00
00
00
01
19
cd
ff
dd
c9
fd
00
00
00
fc
00
00
ee
e9
cf
d2
fd
00
00
33
d9
24
ce
00
de
c9
20
d5
00
00
00
00
3e
e2
ff
cc
dc
d6
00
00
00
f3
00
00
ce
c9
d0
b8
00
00
00
30
ca
48
c7
00
da
dc
2b
ce
00
00
00
00
50
e3
fe
dc
e4
01
00
00
00
05
00
00
fe
ff
ec
e2
02
00
00
0c
de
38
e4
00
db
e6
1b
e4
00
00
00
00
25
30
ff
2d
f2
0a
00
00
00
0d
00
00
12
f8
f7
20
00
00
00
ec
18
f5
18
00
f6
1b
fb
12
00
00
00
00
07
09
00
11
e3
ef
00
01
00
03
00
00
fa
f2
cd
d2
ff
00
00
36
ed
3d
ea
00
fb
fb
13
dc
00
00
00
00
35
fd
00
00
fa
e7
00
00
00
f0
00
00
d4
c0
d9
e9
02
00
00
43
d9
3c
e3
00
dc
e8
22
e5
00
00
00
00
2f
eb
00
da
fe
00
00
00
00
09
00
00
fb
d8
f4
10
00
00
00
2c
e7
13
f4
00
0b
ea
12
0b
00
00
00
00
18
f7
00
da
ed
f3
00
00
00
03
00
00
dc
d1
08
f6
fe
00
00
1d
fe
12
09
00
10
04
0b
f0
00
00
00
00
14
f8
01
07
dc
eb
00
00
00
f4
00
00
0b
cd
f7
e5
03
00
00
31
e7
3c
f1
00
e2
f3
0e
dd
00
00
00
00
ff
0e
01
f9
df
f6
00
00
00
f8
00
00
f5
df
c3
e4
ff
00
00
3e
e5
29
f6
00
d9
dc
1b
f0
00
00
00
ff
24
fc
ff
c8
ec
e2
00
00
00
ff
00
00
e3
c7
cc
dd
fe
00
00
1d
e2
10
fc
00
fc
dd
14
d5
00
00
00
01
36
05
01
d4
d3
d6
00
00
00
f6
00
00
10
d8
e0
ed
00
00
00
0c
eb
1b
e0
00
e7
f9
10
d7
00
00
00
00
1d
da
00
c5
e4
e2
00
00
00
00
00
00
e9
d1
cb
c4
02
00
00
31
e7
38
ea
00
cc
ed
18
f6
00
00
00
00
24
d8
02
d8
ef
e8
00
00
00
ea
00
00
01
d1
e4
d3
fd
00
00
36
f2
0d
e9
00
d8
f7
12
d1
00
00
00
00
07
1b
ff
00
10
e3
00
00
00
03
00
00
1b
cd
fc
db
ff
00
00
18
f2
0c
16
00
e0
f0
fc
fb
00
00
00
00
1a
fd
fe
df
ed
ee
00
00
00
f8
00
00
04
c3
05
ee
00
00
00
23
05
13
ff
00
ea
f8
fc
f1
00
00
00
01
1f
03
ff
e7
ce
dd
00
00
00
05
00
00
13
d3
f0
de
fe
00
00
06
f2
39
f5
00
fb
ec
0b
ff
00
00
00
01
10
1b
01
00
ef
fa
00
00
00
03
00
00
08
e6
e5
19
fe
00
00
e4
0b
e4
15
00
14
17
fd
17
00
00
00
00
ff
24
00
1c
fc
05
00
00
00
0c
00
00
28
d7
14
00
02
00
00
00
00
16
17
00
f8
06
ff
25
00
00
00
00
fe
1f
02
cb
dc
e9
00
00
00
0c
00
00
e2
d6
f3
d9
01
00
00
26
ec
19
ec
00
01
fc
12
ef
00
00
00
00
23
e8
fe
0f
fc
ec
00
00
00
07
00
00
e2
d0
f9
e2
fd
00
00
31
fc
0e
ff
00
12
ff
0a
07
00
00
00
02
10
1d
00
09
0d
fe
00
01
00
0a
00
00
17
ec
f5
e0
fc
00
00
07
f6
18
f9
00
06
fe
0b
de
00
00
00
01
fb
fa
01
fa
08
e6
00
01
00
f1
00
00
dd
e6
d1
ec
ff
00
00
ed
fc
3c
01
00
f8
e9
0a
05
00
00
00
00
01
fb
00
e5
f1
e3
00
00
00
f2
00
00
0a
e4
ba
de
ff
00
00
28
f4
31
fb
00
e9
e2
1b
02
00
00
00
00
3c
eb
ff
ec
e5
da
00
00
00
ed
00
00
08
c2
f2
e2
fd
00
00
35
eb
30
fa
00
fe
e9
2a
ea
00
00
00
01
46
d7
02
ae
f4
ce
00
00
00
00
00
00
e5
de
f5
e3
fc
00
00
2b
da
62
c8
00
c5
de
28
ea
00
00
00
01
56
ed
fe
fa
f1
f1
00
00
00
0c
00
00
e1
fd
ec
fa
02
00
00
42
f7
3a
e2
00
ee
f3
20
cc
00
00
00
00
1f
dd
fc
b9
f6
da
00
00
00
f9
00
00
c8
cb
fd
e3
fd
00
00
24
ec
2d
e8
00
f2
e8
2d
c0
00
00
00
00
2f
d5
fd
0f
e5
ef
00
ff
00
0c
00
00
06
f4
fc
fc
fc
00
00
14
e4
42
f6
00
e9
01
26
d0
00
00
00
ff
17
08
fe
ea
dc
0d
00
00
00
f7
00
00
30
db
1c
1d
fe
00
00
1b
18
27
0c
00
02
20
0b
19
00
00
00
ff
ff
23
fd
07
f0
e5
00
01
00
11
00
00
10
de
fd
f0
04
00
00
36
12
f1
f8
00
ee
fd
11
ed
00
00
00
02
0c
11
04
d5
f6
f2
00
00
00
fb
00
00
ff
c9
f4
fd
ff
00
00
15
e2
2d
de
00
01
ce
25
e9
00
00
00
00
33
00
02
0c
d5
ee
00
01
00
06
00
00
dd
e6
f3
db
01
00
00
fc
e5
3a
e3
00
06
d0
2a
c9
00
00
00
02
3d
fd
04
ec
f8
ff
00
ff
00
1a
00
00
1c
c5
f1
0e
ff
00
00
32
0e
2f
20
ff
f8
fe
16
db
00
00
00
ff
10
0d
fe
e7
05
10
00
00
00
18
00
00
12
17
fa
ec
00
00
00
f1
fc
fa
33
00
1b
1d
0b
20
00
00
00
00
0f
1d
ff
39
07
03
00
00
00
25
00
00
3c
fd
f2
24
ff
00
00
fa
0d
0c
37
00
1d
09
02
1a
00
00
00
ff
f2
33
02
0b
29
1d
00
00
00
25
00
00
3d
04
0a
1e
fe
00
00
e8
37
da
36
00
25
15
f8
17
00
00
00
03
ee
3a
fd
0b
03
0f
00
ff
00
10
00
00
f4
d2
f6
ff
fb
00
00
18
0c
e3
26
00
fd
fb
01
19
00
00
00
ff
06
3e
fd
fb
e5
fa
00
02
00
1f
00
00
2e
08
28
f3
01
00
00
ec
1e
02
1b
01
f9
1c
fe
1f
00
00
00
02
fa
27
fe
f9
1b
e7
00
01
00
1f
00
00
2a
1d
f7
fd
fe
00
00
e8
08
13
07
00
0d
04
fd
fa
00
00
00
fd
e9
3e
fc
fd
05
16
00
00
00
f9
00
00
36
d6
17
f2
fb
00
00
21
16
22
0e
00
ee
14
03
18
00
00
00
ff
17
ff
fb
dd
12
08
00
00
00
fd
00
00
08
f4
d4
fe
fe
00
00
30
06
30
17
ff
ff
10
15
f0
00
00
00
fe
22
03
06
e1
1a
06
00
01
00
18
00
00
fc
d3
1c
d8
00
00
00
1f
f3
e9
0e
ff
0d
e7
0e
01
00
00
00
04
e9
16
fb
f3
f5
df
00
00
00
18
00
00
15
04
e7
e9
fa
00
00
ed
07
2e
01
00
f0
0d
02
24
00
00
00
01
20
3b
05
31
eb
09
00
ff
00
01
00
00
2d
fe
07
0a
fe
00
00
f9
1b
f2
31
00
fa
21
fc
14
00
00
00
02
d3
34
fe
25
1a
fc
00
fe
00
0d
00
00
f1
dc
fa
e4
04
00
00
03
0b
0b
2e
00
ee
24
f6
26
00
00
00
fd
fd
2e
00
cf
f6
d6
00
ff
00
0f
00
00
e8
0a
ef
f5
03
00
00
eb
12
34
0c
00
1d
00
08
eb
00
00
00
fc
28
e4
07
f7
e4
00
00
00
00
ed
00
00
09
d4
fe
e7
fe
00
00
1c
12
f9
0d
00
e0
f0
09
f0
00
00
00
fe
fb
09
05
24
03
e3
00
fd
00
fc
00
01
e0
d0
d7
eb
04
00
00
1d
11
26
1b
00
fe
0d
08
ff
00
00
00
fe
f4
06
08
d8
1f
f8
00
00
00
1a
00
00
23
15
d2
f2
f7
00
00
f4
ed
26
1f
00
06
f1
fe
ec
00
00
00
fc
1e
10
fb
dd
f4
15
00
02
00
1b
00
00
11
d4
ec
24
fa
00
00
e3
20
1a
25
ff
0f
eb
f6
20
00
00
00
fd
f4
2a
02
2f
e9
eb
00
fd
00
f9
00
00
09
cf
23
d7
fd
00
ff
fe
ed
fc
1c
00
02
f9
fb
f0
00
00
00
01
10
08
03
fc
f8
e5
00
04
00
f9
00
00
e7
df
ef
0b
0a
00
00
24
10
15
f4
00
f8
e0
09
1d
00
00
00
fd
ed
24
01
05
e5
db
00
03
00
05
00
00
0b
e6
14
f9
08
00
ff
da
1e
14
1d
00
f4
1b
05
dd
00
00
00
03
18
f3
01
ef
10
10
00
fe
00
fd
00
00
08
09
25
21
f5
00
ff
f4
f9
31
28
01
29
06
fa
24
00
00
00
00
08
41
f9
14
f4
03
00
02
00
24
00
01
04
24
07
08
f5
00
01
1e
fe
c5
13
00
17
f8
f4
36
00
00
00
ff
cb
08
01
02
f5
11
00
00
00
27
00
ff
33
dd
f5
2a
fe
00
00
1f
0a
e6
03
00
e6
ff
f8
16
00
00
00
f9
e8
27
00
df
15
fa
00
02
00
03
00
00
01
09
f0
df
f8
00
00
db
27
15
27
ff
27
28
f2
1d
00
00
00
07
ef
11
04
32
1b
0e
00
00
00
02
00
00
fd
ed
fa
18
06
00
00
fb
01
fe
08
ff
e3
f9
f7
2c
00
00
00
05
1d
e7
00
0a
e9
dd
00
04
00
f1
00
00
25
fb
01
c5
ff
00
00
35
0c
10
16
00
11
e8
ff
fd
00
00
00
fd
e5
f6
fd
f4
de
cc
00
fe
00
ec
00
00
c6
df
c0
d6
08
00
00
ef
f1
48
e8
00
da
f4
08
c5
00
00
00
fd
3a
e0
01
f7
be
de
00
fe
00
fc
00
00
d3
ca
c8
f2
fa
00
00
2b
d9
02
fb
ff
ce
d5
14
ec
00
00
00
04
26
f8
fc
e8
e9
0a
00
00
00
fa
00
00
1d
03
ec
f1
ff
00
00
2c
fd
e3
f3
00
d9
f9
f8
ee
00
00
00
fe
09
1c
fb
11
0e
f5
00
ff
00
06
00
00
ec
f5
16
d3
f8
00
00
e6
02
f8
f1
00
e0
f2
f3
e1
00
00
00
ff
1d
f8
01
ea
df
ea
00
00
00
fc
00
00
d8
c5
d6
04
00
00
00
05
02
18
ff
01
f3
00
f7
ff
00
00
00
00
11
2e
02
21
04
ea
00
00
00
05
00
00
eb
e0
db
eb
fd
00
00
10
fc
02
fa
00
ec
0b
eb
22
00
00
00
00
f3
1f
00
d9
e4
db
00
00
00
09
00
00
12
bc
d8
eb
02
00
00
db
ee
00
04
00
ed
ec
f0
0a
00
00
00
00
0e
10
01
d5
f3
f8
00
00
00
ff
00
00
15
c6
f9
f1
01
00
00
fb
ea
0f
05
00
f5
f5
f7
ed
00
00
00
00
15
2d
ff
14
ef
f2
00
00
00
01
00
00
fb
0a
08
f3
fe
00
00
ee
09
02
1a
00
ef
19
ed
14
00
00
00
00
e5
18
01
df
00
fd
00
00
00
fa
00
00
08
d4
f5
de
01
00
00
e5
ff
1d
08
00
f7
02
f3
03
00
00
00
00
16
f6
00
f6
ec
ec
00
00
00
f9
00
00
f1
d4
e2
d7
ff
00
00
2f
f5
22
e8
00
e2
f3
00
df
00
00
00
00
08
eb
00
dc
eb
e3
00
00
00
f0
00
00
dc
e9
d6
ef
ff
00
00
38
dd
31
e1
00
ed
e8
09
d0
00
00
00
00
17
fe
00
f5
db
e5
00
00
00
f9
00
00
eb
e5
d0
df
00
00
00
28
e6
2e
de
00
e9
e4
0b
ec
00
00
00
00
1e
ef
00
e5
ec
e1
00
00
00
f5
00
00
da
b8
e1
d1
00
00
00
3e
d9
31
d8
00
f1
e2
15
d6
00
00
00
00
28
e0
00
dc
e5
e2
00
00
00
f6
00
00
f0
c3
c9
d6
00
00
00
2e
e0
38
e2
00
e0
dd
17
dd
00
00
00
00
26
ca
00
c7
dd
dd
00
00
00
f2
00
00
d3
ce
c9
d1
00
00
00
3f
d2
50
cc
00
d3
d5
26
c6
00
00
00
00
41
