e7
fe
f0
1d
f6
f7
03
39
00
0f
e6
00
00
08
02
1e
df
cd
12
da
f5
f2
01
1d
ff
f6
c8
fd
00
fe
21
0c
d5
03
fb
3e
02
1b
14
ec
00
40
d5
00
00
fa
12
e5
fe
fc
c2
dc
1c
39
00
12
fe
0a
28
06
00
18
f7
11
aa
04
d0
10
f1
18
fb
c5
00
e8
da
00
00
ff
54
3d
4d
bb
c9
c0
e0
40
00
4f
01
10
37
11
00
24
23
45
28
fd
d9
f7
0e
ea
fc
06
00
2a
1d
00
00
01
22
fe
52
f6
1c
05
38
17
00
55
00
d4
3d
dd
00
1e
15
4f
b6
fc
46
07
fb
d4
eb
ea
00
1f
f2
00
00
54
47
f4
56
fd
f5
cc
60
17
00
50
00
fc
ee
1a
00
0f
d2
2a
21
fa
e1
21
1b
f7
10
c6
00
41
fe
00
00
14
18
fa
3d
b5
cc
0f
2d
38
00
eb
ff
e2
27
27
00
23
2b
63
f0
08
3d
09
ee
0b
39
a0
00
f9
ff
00
00
42
ee
1e
60
e9
00
af
e3
15
00
f5
fc
44
09
16
00
38
cc
08
bb
01
f1
5e
fd
f8
16
aa
00
35
06
00
00
1c
0e
4d
4e
00
ba
06
2c
0a
00
ec
fa
58
02
e4
00
1b
2a
18
fa
f8
3e
43
17
f8
01
09
00
07
1a
00
00
0d
40
0a
20
c9
b6
e7
51
fc
00
d5
f8
ea
1e
04
00
fa
03
43
fd
ff
2d
d9
e3
11
00
04
00
d9
e0
00
00
f1
2d
dc
02
c9
c0
2c
23
0c
00
0c
f8
cb
c7
e9
00
f7
f2
ce
1f
fd
26
1f
f5
19
0f
ea
00
03
e9
00
00
3d
18
fe
2e
19
10
2d
03
15
00
ed
f9
e8
42
cf
00
f8
fc
db
de
fe
f9
fa
09
fe
00
1e
00
e6
00
00
00
3c
12
39
e2
e6
d2
d9
2d
36
00
21
f9
fa
df
f0
00
f9
fb
08
fc
01
20
11
06
2c
01
e8
00
04
0c
00
00
21
42
19
e6
de
31
18
d0
0e
00
1c
fb
2b
1c
d4
00
f3
1f
f3
d7
ff
e6
ea
e5
10
31
bb
00
f0
12
00
00
57
27
42
18
c8
ca
c2
31
e6
00
db
fb
1e
39
d7
00
0b
e9
18
f0
03
36
f7
f2
0f
16
ef
00
2b
fd
00
00
3f
f3
2d
1f
22
f2
f7
3e
0d
00
f9
fc
e9
2e
f4
00
00
d3
f1
e0
fb
10
2a
13
cd
0c
d4
00
37
d1
00
00
e1
f6
1e
0e
01
f2
ce
17
ed
00
d8
fc
05
3f
e6
00
1a
08
3c
d7
02
09
0c
06
e5
0f
2d
00
ff
00
00
00
f1
fa
03
e5
0e
36
df
d4
f9
00
14
fb
4a
2d
da
00
21
fe
e6
f4
00
34
27
11
d9
f4
0a
00
0f
d5
00
00
07
08
dc
20
f8
28
17
3c
b7
00
e4
fa
e0
df
f9
00
f1
1e
12
00
fd
05
fe
10
0d
e3
1b
00
25
1e
00
00
f0
29
0f
f5
59
2c
30
c5
00
00
cf
fc
c8
e4
f6
00
cd
0a
f7
3d
fe
eb
f2
06
be
fa
68
00
26
d4
00
00
1b
04
ff
01
3c
06
5c
31
f0
00
ba
fc
21
e1
f0
00
e0
e9
0b
3b
ff
f3
30
07
ca
09
4c
00
f0
de
00
00
25
ce
fa
03
fe
00
23
40
1a
00
bf
ff
09
06
14
00
fa
e3
36
ea
ff
15
df
ef
e4
0f
da
00
23
0d
00
00
10
45
eb
ec
0c
36
ff
31
d7
00
06
fe
2d
08
ff
00
02
ee
d7
12
ff
32
20
06
f0
13
fa
00
35
f8
00
00
f2
07
07
19
27
11
10
20
14
00
45
fe
14
19
10
00
09
f3
db
d5
01
16
08
f8
0a
12
07
00
fa
00
00
00
fb
15
39
4a
b8
ea
e6
0f
df
00
20
00
52
fb
ed
00
1c
e6
47
b4
00
18
11
fd
01
14
1a
00
14
19
00
00
1b
2e
45
56
17
e1
20
f5
26
00
33
00
2e
e5
28
00
25
f3
33
92
03
fb
5c
f1
41
37
da
00
3b
d7
00
00
67
4c
10
31
c0
b8
b1
f9
0b
00
3a
ff
51
15
f4
00
34
e3
35
fc
00
24
20
f7
43
34
b8
00
e2
22
00
00
51
66
60
fd
c6
df
a8
21
53
00
26
00
37
4a
19
00
37
f2
5b
14
00
f7
32
0a
26
0f
b0
00
06
16
00
00
07
12
51
eb
db
db
1a
03
f2
00
3f
ff
4f
f5
10
00
27
ec
26
01
00
d4
f8
04
f7
26
dc
00
0b
08
00
00
33
1d
3c
5e
f3
eb
d7
35
f5
00
37
ff
f6
25
29
00
34
f2
37
07
00
06
ed
00
17
0a
03
00
24
12
00
00
2b
e6
dc
41
d3
e7
c6
46
1b
00
1a
fe
41
e3
17
00
16
f4
55
f5
00
f8
1f
02
e0
13
0b
00
ec
01
00
00
fd
fe
07
fc
1c
26
fe
21
23
00
05
00
0f
16
f7
00
08
0b
ea
09
00
0a
f4
f7
1d
15
bf
00
ec
1c
00
00
1b
35
dd
f2
18
26
c4
22
39
00
05
00
22
26
29
00
1b
11
e1
12
00
2d
11
09
06
1e
c2
00
fc
ff
00
00
52
56
2b
e4
f2
c2
c8
e8
d7
00
ff
00
3e
39
1d
00
1a
0c
10
39
ff
2c
f2
fa
de
fd
27
00
01
05
00
00
de
24
1b
0a
35
06
f7
fd
24
00
0d
01
e3
eb
e3
00
fa
03
41
f9
00
eb
d1
06
0a
fd
4c
00
04
18
00
00
1b
16
d2
d4
0d
5b
35
e6
ed
00
ce
00
03
e8
09
00
e7
f9
de
51
00
1b
d1
01
d9
df
3f
00
dc
17
00
00
da
0a
fa
f7
42
1c
27
eb
ef
00
cb
ff
bb
b4
08
00
e6
02
c0
15
00
f5
f8
fa
d4
e7
10
00
0e
e2
00
00
d4
ee
07
f0
5a
5f
1a
da
ec
00
b0
ff
c4
a9
ed
00
d3
ee
c0
68
00
27
05
fa
c8
d9
3e
00
f3
fa
00
00
e3
16
06
f8
21
2d
fc
1a
de
00
1b
ff
12
c8
02
00
da
e6
ef
1d
00
37
e2
ff
bf
ce
5b
00
17
14
00
00
ae
b0
d9
c2
4d
26
34
c5
fd
00
de
ff
d2
f9
d7
00
c6
13
f4
72
00
30
d3
05
e8
c7
7f
00
23
01
00
00
c9
c4
ed
f1
57
3c
3a
e8
da
00
d5
fe
e7
e5
ea
00
bb
04
9d
46
00
e7
f7
03
09
eb
46
00
fc
fa
00
00
25
fb
f5
d7
27
46
ed
01
d1
00
ee
00
d1
ec
e2
00
ed
eb
f5
ea
00
dd
f3
fe
12
0e
eb
00
f6
14
00
00
05
24
33
ed
f2
fa
ea
f5
33
00
e5
00
2a
2c
f8
00
13
11
4c
12
00
fd
1d
fc
12
02
19
00
ef
ff
00
00
e3
21
12
24
ed
fe
2e
09
2c
00
d7
00
1a
ee
1b
00
fd
0e
e0
ed
00
e7
db
00
e5
ff
48
00
27
07
00
00
ef
3a
f5
e3
13
4a
3d
e5
f7
00
f9
ff
04
f4
0a
00
05
f4
f0
39
00
2d
0e
00
e5
fa
ed
00
1e
ea
00
00
1e
ef
fe
fd
00
3f
36
34
c3
00
d4
01
ea
c4
e3
00
fb
f0
22
1f
00
1c
f1
fe
e1
f1
ec
00
ee
f3
00
00
ec
f3
22
0c
00
44
10
18
dd
00
d0
ff
07
ca
13
00
fa
ff
1c
27
00
38
01
01
15
fe
32
00
11
02
00
00
fe
33
2e
da
32
f4
1f
e7
01
00
1b
ff
0b
12
16
00
fb
06
e6
ff
00
e6
12
ff
17
04
ff
00
18
03
00
00
dc
17
31
01
0b
ef
fc
2a
fe
00
16
ff
2a
18
e0
00
05
f0
40
5d
00
1f
0b
ff
d7
e9
1d
00
0b
fb
00
00
c2
f5
f4
f8
16
39
f6
d9
0f
00
0b
ff
c5
dd
e7
00
e3
ff
c1
29
00
12
ee
fe
e8
f4
fc
00
08
eb
00
00
e3
c8
c7
ca
0f
22
3f
1f
0a
00
c8
ff
2e
09
e1
00
ee
fb
03
e8
00
38
e8
fd
04
f9
15
00
1b
17
00
00
24
fc
29
2e
1c
f4
21
16
0e
00
c7
00
2b
e4
13
00
f9
05
ec
43
00
0a
d3
fe
05
ec
25
00
20
e5
00
00
da
02
c6
d2
14
34
44
c3
c9
00
bd
ff
fa
ba
f5
00
ea
fd
fc
1b
00
0b
04
fe
f0
fd
f3
00
0a
09
00
00
33
d3
20
e8
33
20
eb
0d
fe
00
f1
ff
26
16
e7
00
fb
01
06
00
00
1f
ff
06
1e
12
04
00
2a
02
00
00
15
35
e0
fd
00
2e
1e
ef
06
00
06
00
3b
fa
e7
00
0a
10
12
c5
00
eb
12
fe
f8
14
c8
00
f9
13
00
00
f3
2d
30
eb
1e
eb
f0
fe
17
00
35
00
47
fa
1a
00
16
07
23
0a
00
25
00
02
f7
19
07
00
03
0a
00
00
4e
e6
f4
e1
fb
e5
11
04
e8
00
21
00
19
0f
06
00
18
ee
eb
0d
00
08
e9
06
f1
0e
e1
00
2a
fc
00
00
06
44
f1
3c
e9
04
29
e5
09
00
03
00
48
f1
03
00
0f
f4
e3
0a
00
1a
13
06
f9
0b
11
00
fb
ef
00
00
fb
f6
20
13
eb
f7
06
dd
11
00
e4
00
28
e9
f1
00
08
fd
fc
31
00
01
f4
ff
f7
04
fa
00
f0
17
00
00
30
12
1e
e1
08
1d
20
da
df
00
d8
00
14
1a
12
00
f1
f9
3b
3b
00
04
cc
fe
f9
f3
01
00
e1
02
00
00
0d
16
da
dd
f6
f2
f4
1f
c9
00
de
ff
19
f3
e3
00
e8
0a
01
06
00
f0
e8
00
db
d7
0d
00
df
ee
00
00
ae
bb
ce
ff
16
60
2d
15
c4
00
99
fe
c4
c0
02
00
cd
fe
0d
16
00
e6
d5
00
f1
da
40
00
fe
fb
00
00
e2
d8
12
be
20
0b
0e
dc
fb
00
a0
01
d2
de
dd
00
cf
fc
c9
11
00
07
d8
ff
e4
f1
32
00
e6
11
00
00
d3
e0
cb
f9
34
0a
3e
cc
c2
00
f1
ff
11
db
f2
00
e5
01
18
1b
00
ee
d2
01
ee
dd
55
00
f7
fe
00
00
c4
ce
0f
f3
54
52
57
de
c9
00
c9
ff
df
b8
16
00
c7
ff
11
fb
00
0d
d2
00
d5
e7
47
00
1c
0e
00
00
e8
1b
ea
0e
38
3a
f9
13
d2
00
c7
00
cb
fb
ff
00
dd
01
ec
13
00
f7
0b
01
08
0b
0b
00
f5
0c
00
00
2e
ed
fd
18
0d
f4
08
20
de
00
01
ff
fe
09
f0
00
01
04
d5
fc
00
27
20
04
20
2f
d0
00
24
ff
00
00
0e
20
01
4f
c3
ec
e2
4b
12
00
29
00
0e
f5
fc
00
2e
ff
19
d9
00
10
37
00
27
36
c6
00
f7
02
00
00
45
50
4b
4d
b2
f9
b6
47
4e
00
07
00
55
51
15
00
3d
09
fc
ab
00
05
16
00
1f
3d
ab
00
21
0f
00
00
5b
09
57
3a
a6
cb
c1
23
5b
00
47
00
4b
2e
0a
00
36
07
67
e3
00
f4
29
00
1b
2b
b9
00
fd
02
00
00
24
15
31
1e
eb
e5
b7
fe
09
00
33
00
4c
fa
f9
00
31
fe
43
f5
00
fd
12
00
08
2f
cd
00
ec
06
00
00
55
02
50
f8
d8
e1
ec
ec
23
00
58
ff
45
28
1d
00
2d
f9
50
a5
00
10
32
fe
12
2f
f4
00
0c
ec
00
00
64
5b
0f
03
d5
e7
bf
3b
05
00
05
01
4e
2e
0b
00
32
ff
ff
c2
00
e2
20
ff
26
23
da
00
1e
11
00
00
30
2a
2c
40
d3
c9
d9
3b
2f
00
f0
00
4e
32
f5
00
1e
fe
24
c0
00
f0
01
00
14
1d
fa
00
0a
10
00
00
33
0c
38
46
ff
bf
e6
19
33
00
25
00
09
3f
f7
00
1d
f7
e8
f7
00
23
ef
03
f5
01
05
00
ff
f8
00
00
e7
16
17
1e
e0
22
ed
34
e0
00
1d
00
fe
1a
1c
00
05
00
04
c2
00
03
24
ff
17
17
06
00
0d
0a
00
00
26
05
15
f1
e7
ef
eb
e3
38
00
03
00
4d
f9
10
00
0e
fd
2f
ad
00
e4
16
04
13
3c
c3
00
f9
05
00
00
1a
17
0d
60
e5
ce
e1
2e
08
00
44
01
07
01
f5
00
2f
fa
18
d2
00
22
13
fd
18
1a
ca
00
27
ec
00
00
fc
38
41
47
c6
e1
05
29
24
00
1a
01
3c
14
e8
00
20
f8
4f
1b
00
ea
0c
01
0e
0c
26
00
01
ff
00
00
e6
29
2f
20
f7
17
2a
1b
20
00
00
00
0e
07
10
00
0a
fe
26
28
00
00
04
00
fd
f8
f1
00
e3
f4
00
00
eb
db
10
d5
37
19
28
07
1c
00
f9
00
d5
cd
f6
00
f1
fc
23
0c
00
fe
0c
ff
0e
f2
04
00
e7
08
00
00
0f
e4
c6
fb
24
30
43
07
09
00
c3
ff
f5
d0
ef
00
f0
f9
fb
06
00
16
17
fd
ed
fb
2c
00
e6
07
00
00
ea
15
f2
09
02
3a
e2
13
ce
00
29
00
2a
fb
f2
00
ff
fe
02
21
00
28
e7
02
e9
ec
0c
00
08
05
00
00
16
21
23
15
f5
05
20
dd
d1
00
ee
ff
1d
00
e1
00
f1
fa
e5
15
00
2d
e2
00
fe
dc
51
00
f7
f4
00
00
dc
e3
f9
be
57
15
41
04
b9
00
cc
01
0b
da
e6
00
d4
00
df
10
00
1b
e9
01
ed
ee
1b
00
f8
05
00
00
02
f8
d8
17
3c
f9
10
0b
15
00
f3
00
c1
cf
00
00
e8
fd
f4
f2
00
21
00
00
11
03
f1
00
f7
fb
00
00
2e
2d
e1
f0
e1
fd
d3
e4
d9
00
2b
00
e8
12
18
00
02
09
1a
26
00
2d
10
00
f2
fe
0c
00
f1
f3
00
00
d7
17
21
18
23
eb
09
fa
20
00
ec
00
d5
2e
fb
00
00
04
35
09
00
ff
0b
00
01
09
e9
00
1c
02
00
00
31
e4
0a
1b
e9
e9
14
f0
1a
00
07
00
20
2e
1a
00
08
ff
33
de
00
ed
0f
00
1a
0a
fe
00
20
f9
00
00
fe
f3
24
23
e2
fd
f5
39
e7
00
e3
00
00
38
0f
00
0d
fa
f6
f9
00
f1
0b
04
18
0b
f6
00
16
ef
00
00
f7
18
fe
ef
d7
0d
e5
f2
21
00
29
00
40
ed
e6
00
11
fa
2b
c6
00
de
28
00
1e
19
b4
00
fa
ef
00
00
34
00
41
25
d1
0d
d9
39
32
00
f7
00
4a
2f
e0
00
1a
fd
09
d5
00
1c
27
02
26
29
d2
00
10
05
00
00
35
24
1c
31
e7
e4
d4
fb
22
00
2e
00
51
2d
0c
00
36
fe
10
ae
00
e2
4b
00
33
38
93
00
f9
f6
00
00
57
34
3d
60
d0
c7
be
1d
25
00
15
00
2c
66
04
00
4b
07
44
ac
00
df
4c
fe
18
3f
ab
00
1e
ff
00
00
60
2a
1f
4b
e1
be
d9
20
2e
00
25
00
60
1d
0d
00
48
fe
15
dd
00
f4
18
fe
09
1c
e1
00
f5
0e
00
00
46
25
2a
28
f5
e9
f0
ee
48
00
17
00
44
22
f2
00
2b
fd
3f
d3
00
10
03
00
14
16
ef
00
14
01
00
00
43
1c
02
3b
de
ec
e6
27
24
00
fa
00
ff
0e
f3
00
19
02
52
09
00
20
11
01
13
10
ec
00
ee
f1
00
00
45
11
2f
2a
dd
d4
f6
f9
39
00
1f
00
13
30
0f
00
1c
03
1c
eb
00
e3
09
01
14
12
e9
00
f0
0b
00
00
04
46
36
f6
ed
d8
cc
01
1e
00
29
00
ee
29
15
00
18
fb
34
06
00
ff
21
00
0e
15
be
00
22
04
00
00
27
2b
2a
45
f0
cc
ef
eb
08
00
38
00
31
1e
02
00
1d
fd
0f
d8
00
fa
34
00
0a
33
a5
00
17
f4
00
00
49
1c
01
12
d7
f6
b8
37
30
00
07
00
ff
09
04
00
36
fc
05
a0
00
18
3d
00
21
41
b9
00
29
f6
00
00
36
51
17
61
aa
d3
c9
fa
31
00
1e
00
63
52
19
00
46
fc
51
bf
00
e8
37
00
33
4c
9c
00
14
08
00
00
5c
5f
39
40
c1
eb
b7
08
30
00
46
00
65
24
0a
00
55
fe
52
a0
00
09
37
ff
18
35
95
00
21
fe
00
00
34
56
14
39
c4
e0
bb
1c
0a
00
14
00
42
5b
08
00
42
fe
69
bb
00
f5
27
00
25
36
9e
00
1a
0a
00
00
55
3d
1d
34
c3
e5
cf
12
54
00
72
00
43
23
0e
00
42
01
64
98
00
07
27
00
3a
43
97
00
14
ff
00
00
62
45
17
52
d4
a7
d9
48
34
00
65
ff
65
55
14
00
4f
01
25
9e
00
09
4e
ff
34
46
8f
00
fe
00
00
00
20
28
32
6a
be
9f
a8
2a
59
00
4a
ff
48
1e
06
00
56
02
13
a7
00
f8
3e
00
1b
33
aa
00
0d
fc
00
00
12
29
07
3b
bd
ca
cf
47
13
00
5f
00
07
34
ee
00
35
fc
1e
da
00
18
43
00
1a
35
c0
00
12
f6
00
00
1b
19
05
50
be
f4
cd
2e
44
00
59
01
11
20
fc
00
41
fe
2e
fd
00
f7
21
00
21
30
cd
00
19
00
00
00
1a
4f
3d
3d
d5
b8
aa
29
0e
00
2e
00
ff
0b
0b
00
3e
fd
4a
b1
00
17
2a
ff
20
3d
c2
00
23
00
00
00
3a
35
20
41
df
b1
b9
49
2b
00
5b
00
2e
29
e7
00
48
01
24
e0
00
d9
2d
00
33
33
a0
00
26
04
00
00
1d
27
19
0e
c9
ba
d5
28
18
00
3d
01
3a
36
0d
00
3f
f9
01
cc
00
dc
1c
00
2b
37
9b
00
1b
f6
00
00
46
4b
2d
2c
cf
a6
be
2f
3f
00
53
00
5a
17
06
00
39
fb
0c
f5
00
03
1b
ff
26
30
aa
00
15
0b
00
00
3d
3e
1a
4e
d6
d3
cb
42
1d
00
3d
00
1f
1b
f5
00
38
02
09
fb
00
de
28
00
27
26
f0
00
fd
f6
00
00
3e
52
33
05
cc
d9
ca
3f
34
00
2f
00
f1
fb
18
00
2f
04
36
c2
00
10
29
01
13
1e
c2
00
24
03
00
00
06
51
2e
23
cd
b8
01
11
f7
00
43
00
1b
04
f5
00
2a
05
ff
19
00
de
15
00
1f
0c
fe
00
1f
01
00
00
03
03
1b
00
ec
ec
e8
00
2a
00
17
00
e4
30
f5
00
13
fd
43
0d
00
f0
10
00
0f
14
ee
00
16
fa
00
00
1a
f0
fd
31
07
ea
07
ef
e6
00
36
00
f8
1b
16
00
15
fe
44
0b
00
0e
00
00
0b
12
c9
00
1d
08
00
00
15
13
21
2d
eb
d7
fc
1d
01
00
1a
00
f8
0d
06
00
1a
03
34
11
00
02
10
01
09
0f
d5
00
13
00
00
00
24
17
1b
3a
01
fb
cd
12
2d
00
fe
00
05
10
e7
00
12
06
fc
e3
00
ff
f5
00
08
04
21
00
f1
08
00
00
07
fc
05
ea
ec
ea
17
03
ff
00
2c
00
e2
10
f2
00
0a
05
f6
fc
00
1c
f6
00
00
f1
1e
00
f8
05
00
00
f1
ee
15
1d
1c
28
f3
da
df
00
e5
00
04
e7
05
00
f2
ff
25
dd
00
ea
ff
ff
12
fb
1e
00
f5
fd
00
00
f9
03
fa
02
14
f2
fe
e8
11
00
1e
00
ef
2a
14
00
ff
ff
e6
c5
00
05
0b
00
0b
18
d9
00
13
09
00
00
00
fb
ec
0f
ea
ee
dd
f2
ea
00
0d
00
2c
f6
f1
00
15
fd
38
03
00
fc
1a
00
14
1c
da
00
14
00
00
00
1d
30
f2
2a
e2
dd
eb
f9
1a
00
14
00
f2
30
10
00
16
fe
1f
ce
00
e3
0c
00
25
0f
0f
00
14
fa
00
00
fa
e0
25
ec
ea
18
de
f1
24
00
25
00
2e
fa
fc
00
10
02
2e
cc
00
08
f9
01
22
0b
f3
00
fc
02
00
00
fb
2a
e5
e3
db
d0
17
19
2b
00
ec
00
d7
28
ef
00
08
fc
11
16
00
f4
05
01
01
09
1e
00
f0
05
00
00
e0
f4
0e
11
05
e6
1e
2f
e6
00
0c
00
d3
17
f1
00
11
02
f6
08
00
16
fd
00
08
0f
e0
00
fa
fb
00
00
ea
18
09
05
e2
e6
d3
1b
28
00
29
00
11
31
f5
00
10
fd
0d
02
00
10
01
00
24
06
d2
00
05
fd
00
00
dd
eb
29
fc
ee
e3
d7
ec
e8
00
f5
00
29
38
06
00
0f
fc
e7
1d
00
ef
00
00
05
f2
d6
00
14
01
00
00
fb
e5
01
e1
01
fe
0b
2f
fd
00
15
00
19
0b
03
00
04
fc
d7
26
00
e2
f0
01
0a
f9
11
00
f2
fb
00
00
d5
21
fb
f8
fd
f1
fc
07
f4
00
1c
00
f4
d8
00
00
fe
01
d6
d5
00
1b
13
00
11
02
e8
00
06
fe
00
00
e7
1b
20
25
e4
ef
f3
03
10
00
11
00
07
e2
f8
00
0b
03
e3
24
00
1c
ee
00
08
f7
29
00
08
fc
00
00
06
11
d9
16
0f
ff
13
15
15
00
d7
00
cd
20
0b
00
fa
04
26
0c
00
20
f5
00
0a
f9
f6
00
0c
01
00
00
08
ea
e1
2c
f4
ea
0c
29
fb
00
d8
00
c0
1c
e7
00
fc
fd
07
13
00
e1
0b
00
06
0e
e1
00
f8
fd
00
00
fa
f1
fe
f9
df
d0
08
11
1a
00
29
00
ed
23
fa
00
1a
03
ea
02
00
f1
fe
00
21
14
fa
00
f7
fb
00
00
03
ff
f8
43
d8
cd
e2
2e
46
00
4f
01
f0
fb
18
00
16
ff
e6
ee
00
15
22
01
30
29
ad
00
09
03
00
00
fc
2b
16
3e
cd
f9
e4
13
11
00
5e
00
40
2a
f3
00
37
03
46
b7
00
0b
16
01
32
2c
d9
00
1d
09
00
00
3e
41
38
24
c7
ed
bf
0b
3a
00
10
01
51
48
07
00
36
fd
39
c9
00
e5
28
00
33
26
dc
00
f5
00
00
00
2c
fc
41
06
c0
a9
ca
2c
25
00
4f
ff
41
1a
f4
00
34
fd
56
be
00
1f
1c
00
23
1d
ca
00
10
02
00
00
20
37
05
0c
de
c6
e1
f4
18
00
5a
00
24
00
ec
00
2b
fe
46
fb
00
1c
10
00
2b
18
b1
00
ee
ff
00
00
12
00
28
15
e7
d5
e4
40
35
00
3d
00
15
40
e9
00
22
fe
e9
b3
00
02
13
00
1b
17
ce
00
05
00
00
00
fe
12
2b
47
da
dc
fc
06
2f
00
39
01
08
21
13
00
25
00
ec
ea
00
f3
1c
00
10
10
f9
00
f7
ff
00
00
20
f4
1c
03
e6
d2
f6
37
23
00
19
01
0d
3d
ea
00
18
fe
07
c9
00
21
20
ff
1b
12
e2
00
ed
fe
00
00
1f
0a
f2
e7
dc
c2
cb
13
2f
00
0d
ff
13
43
f3
00
1a
ff
32
df
00
ea
19
00
18
11
bd
00
15
02
00
00
1e
e8
e4
e0
f3
0f
e2
e9
fa
00
f8
00
00
32
fd
00
19
03
e0
16
00
f3
fa
00
1d
0d
c4
00
ff
02
00
00
17
1f
34
27
f1
19
f2
30
1e
00
2e
01
e5
0a
0a
00
18
fc
05
f1
00
fc
f2
00
15
fd
02
00
f2
ff
00
00
e7
e4
eb
f2
1b
de
18
fc
e0
00
e8
00
00
10
f9
00
f9
fd
20
20
00
10
fe
00
20
03
08
00
1a
00
00
00
d7
f9
f8
ea
0a
1c
d9
ff
23
00
f9
01
e9
08
0f
00
0a
fb
35
d7
00
20
28
00
24
1c
c0
00
f5
ff
00
00
1f
f8
35
0b
df
c2
f5
22
0f
00
56
01
e2
00
00
00
26
fd
2a
c9
00
04
1b
00
16
1c
01
00
09
ff
00
00
23
f2
f9
0d
f4
0c
f7
1d
18
00
fb
ff
eb
42
02
00
29
ff
ec
06
00
23
0f
00
19
1c
1c
00
fa
fe
00
00
14
27
1d
11
e9
e1
17
26
e5
00
ee
ff
eb
f8
fa
00
19
04
df
cb
00
fb
06
02
1f
1a
f8
00
0e
fc
00
00
04
2f
40
f6
cf
0e
e9
ff
f7
00
2c
ff
24
4e
0c
00
2f
fb
2c
dd
00
23
20
00
17
26
ef
00
0e
00
00
00
f9
fe
3f
1e
cd
d6
f3
14
21
00
55
01
49
1f
0e
00
32
02
05
cd
00
1e
1a
00
1d
1a
e4
00
04
01
00
00
e4
1a
04
05
00
0d
d4
05
f1
00
34
01
23
ee
f5
00
1d
fe
fc
21
00
02
fb
00
0c
0c
fd
00
06
00
00
00
df
de
e6
09
14
11
de
2d
ef
00
37
00
05
30
fe
00
0b
ff
f2
05
00
f4
ef
00
06
00
21
00
f1
fe
00
00
fd
0b
1c
15
14
2c
19
f9
ed
00
0c
00
20
f1
ff
00
fa
fe
0b
44
00
00
c8
00
f7
e6
fe
00
09
ff
00
00
ec
ca
da
03
49
f9
29
d6
d5
00
e2
00
f4
e4
0f
00
e1
ff
09
35
00
12
de
00
ed
e4
20
00
e7
00
00
00
ee
c9
e1
0b
1d
46
0f
d6
b4
00
14
00
e0
09
f8
00
df
ff
00
fb
00
ef
e8
01
e7
ed
4b
00
f7
04
00
00
e6
0b
e1
e2
3b
01
fd
cd
cd
00
10
00
b9
c9
fb
00
e7
ff
19
43
00
2a
de
00
f8
f7
3a
00
fb
00
00
00
e0
d8
e1
df
02
f9
15
0b
c9
00
ca
00
d4
23
f4
00
fb
ff
ee
fc
00
14
12
00
25
0e
e8
00
fd
00
00
00
0d
22
ee
e8
1e
38
0f
0f
09
00
e9
00
09
f1
08
00
05
fe
c9
19
00
24
07
00
12
01
1f
00
0d
ff
00
00
0f
d8
0b
04
1f
ec
24
04
ef
00
24
00
fd
1b
08
00
00
ff
ff
2a
00
2c
f7
01
1d
11
0c
00
04
ff
00
00
0a
ff
eb
d2
03
07
01
0e
1c
00
e3
01
2f
da
02
00
1f
fe
ea
dc
00
13
1c
00
1a
1f
d9
00
fe
00
00
00
f9
e8
e9
23
ff
28
0d
38
37
00
43
01
fa
e5
11
00
1f
02
10
de
00
eb
16
00
05
0b
f5
00
fe
01
00
00
fc
0e
12
d7
ff
fb
28
e6
1b
00
2f
01
cc
0a
08
00
0f
fc
15
15
00
11
e1
00
ef
ef
0a
00
10
04
00
00
b8
c0
d6
ec
23
21
46
09
f9
00
07
00
12
be
02
00
e9
ff
e8
4a
00
f1
f2
00
ec
eb
26
00
ec
01
00
00
b1
bd
f6
e1
2e
02
06
d8
d2
00
15
00
fd
10
0d
00
e1
fe
bb
11
00
ee
e3
ff
0e
f4
3c
00
e8
fe
00
00
ce
13
e9
ee
31
12
32
ef
d8
00
fa
00
be
ea
07
00
ec
fd
bf
37
00
1f
d3
00
ed
e8
4a
00
03
00
00
00
fc
0c
03
ef
12
52
0a
09
09
00
bc
00
dc
0e
f8
00
e3
ff
fd
34
00
2c
e1
00
f7
e1
60
00
13
00
00
00
e3
fd
f8
ba
49
01
1c
08
ce
00
d5
00
e0
cd
f0
00
d7
02
f3
0b
00
2c
e6
00
f6
eb
54
00
13
00
00
00
d6
f1
dd
b9
38
09
31
00
f8
00
fa
00
16
14
11
00
e4
fe
d8
0b
00
1c
f1
00
ec
e5
2d
00
01
00
00
00
c5
0f
b8
ce
22
36
3d
fe
c8
00
fb
00
be
fa
00
00
da
fd
df
3f
00
0e
d5
00
f1
da
2c
00
ef
02
00
00
bd
b9
d9
a9
3c
54
53
da
fa
00
ee
00
b2
ca
fa
00
ce
fd
de
63
00
1c
c2
00
fd
e2
08
00
e3
fe
00
00
c2
f2
c9
b7
41
10
3f
f5
b5
00
04
00
c8
e8
ef
00
d2
ff
cb
47
00
f2
d7
00
e4
df
3f
00
06
00
00
00
d1
be
cf
ba
37
4e
3c
c1
c3
00
cb
ff
e2
b9
00
00
cf
00
d8
1a
00
10
cc
00
f2
d8
5f
00
e8
00
00
00
b2
d8
00
ef
34
67
19
b4
a4
00
cd
ff
b4
e3
ef
00
cd
ff
de
18
00
1e
ca
00
e7
d4
43
00
09
00
00
00
cf
f5
fb
b7
4e
24
37
e3
d1
00
b0
ff
cc
f9
05
00
c7
ff
eb
34
00
f4
c6
01
e5
e1
65
00
f3
04
00
00
ce
bd
f4
f7
46
57
45
ee
f5
00
bb
01
f0
e9
07
00
d7
fe
0e
54
00
26
c8
00
f7
de
4f
00
f0
00
00
00
e0
da
d6
b2
37
5a
49
07
b6
00
bf
00
f0
f1
f3
00
d7
fe
a8
0d
00
2b
e4
00
05
e3
3c
00
13
fe
00
00
ec
ba
df
f2
34
57
3a
c3
f3
00
b4
00
e4
de
f4
00
d6
fe
09
3f
00
26
d0
02
fb
e7
4d
00
e0
ff
00
00
e7
e5
06
df
19
3e
21
f6
f6
00
be
00
f1
01
12
00
de
00
c1
3f
00
f1
f7
00
fb
f4
56
00
12
01
00
00
e7
b8
d4
cb
2a
38
18
13
c9
00
ec
00
fb
d2
09
00
e0
02
d3
2b
00
27
e6
ff
df
e1
18
00
ec
ff
00
00
eb
c7
ed
ad
25
24
0e
ea
db
00
da
00
02
0b
12
00
d4
fd
e5
0f
00
1a
e3
00
f0
f3
2f
00
ff
02
00
00
e0
16
1a
c7
19
25
17
0b
f6
00
f4
00
fd
bf
0a
00
eb
fc
e0
d9
00
27
f0
01
08
11
de
00
02
02
00
00
e6
08
24
11
fd
e2
17
df
2b
00
f2
00
db
e8
0b
00
12
04
ee
3d
00
14
e1
00
0d
f5
2e
00
11
05
00
00
d3
09
ea
0a
16
05
19
ec
e0
00
18
00
08
f1
f2
00
ed
ff
f7
3b
00
12
e9
00
fb
ed
03
00
04
fe
00
00
d3
e6
d0
07
34
30
2d
e9
d9
00
f7
00
f7
08
f7
00
e3
ff
c1
2d
00
1f
01
01
00
f8
e5
00
ea
07
00
00
02
fc
f2
d7
26
f3
f7
0a
21
00
d3
00
fc
dd
0e
00
fa
fe
c8
13
00
02
04
00
13
ff
0f
00
fa
fe
00
00
f1
fa
17
19
25
fa
0c
da
e8
00
01
00
db
d4
fd
00
fc
fe
de
3d
00
f7
ea
00
0e
fa
3d
00
fa
01
00
00
d5
e9
ef
db
25
0e
27
f6
14
00
d5
00
e4
e9
0d
00
f0
00
0d
41
00
fe
ed
01
f6
f1
fc
00
09
02
00
00
be
fd
14
b7
3c
ff
12
f8
ff
00
ba
00
ef
e0
fa
00
f1
00
dc
42
00
f3
f5
01
0d
f0
28
00
ee
00
00
00
d3
e3
0f
19
28
24
36
ff
db
00
dd
00
0e
01
f5
00
e8
03
d3
17
00
0d
ea
ff
f7
ed
20
00
07
02
00
00
cb
c9
d8
fd
39
05
1c
ea
d5
00
e2
00
e4
05
f8
00
ec
fb
b9
54
00
ff
e7
01
07
e7
4a
00
e1
02
00
00
aa
c6
c0
e4
30
09
4d
d8
ef
00
b9
00
b5
d5
04
00
dc
05
f3
38
00
e9
eb
00
ef
e4
01
00
01
fe
00
00
d9
00
bd
b5
28
0a
3b
d8
fd
00
02
00
b0
c5
ec
00
e4
00
03
ec
00
1e
f6
03
1b
fb
e6
00
fa
05
00
00
ff
d7
01
0c
19
32
07
25
cb
00
df
01
c1
e2
ed
00
fc
ff
ff
1f
00
f9
05
00
03
00
ed
00
e3
00
00
00
d2
e3
cc
21
27
1a
17
1b
dc
00
fd
00
dd
f9
fe
00
fa
01
dd
12
00
f3
d3
00
12
f5
f5
00
fb
fd
00
00
cd
05
ee
f5
25
1d
04
f3
fe
00
1e
00
ef
f2
0e
00
ec
ff
d6
d6
00
e8
fd
01
08
0d
2e
00
0a
04
00
00
fb
25
11
eb
f0
1f
12
e8
0c
00
e6
ff
03
fe
01
00
0b
05
fb
da
00
fb
0f
00
19
09
26
00
09
02
00
00
da
1c
20
fa
10
23
27
e0
0e
00
d7
00
13
1d
00
00
08
fe
d5
3b
00
1b
fb
00
09
f8
f4
00
0f
fd
00
00
c5
f7
ec
cb
16
30
24
ca
fb
00
11
00
b9
de
f7
00
f0
fb
f6
0c
00
fd
e6
00
04
01
08
00
fc
fe
00
00
f5
cd
c8
de
2b
1b
1a
0b
03
00
11
00
13
dc
f5
00
fa
05
20
33
00
22
03
ff
ff
fc
0c
00
18
fc
00
00
de
ff
07
d6
10
e8
31
08
11
00
26
00
b9
19
0a
00
fe
05
da
ef
00
e4
f4
00
13
fb
11
00
05
fe
00
00
e6
db
0d
de
1f
15
3a
e4
de
00
24
00
e7
fb
fb
00
f2
02
1a
56
00
fb
00
00
fe
ee
3c
00
e2
02
00
00
e6
02
db
11
36
4a
2e
c2
b7
00
bd
00
e7
0c
f2
00
e7
fc
d7
29
00
01
ca
00
f6
e1
1e
00
01
fe
00
00
ad
b7
fb
b9
16
52
02
c3
02
00
08
00
12
0e
f7
00
df
ff
fb
20
00
23
db
01
0f
e6
55
00
01
fd
00
00
bc
ec
07
b5
48
2c
35
1f
fb
00
05
00
b4
15
f6
00
dc
fe
b9
02
00
0f
fe
01
14
fb
ff
00
fa
02
00
00
dc
f1
e7
e8
13
37
01
f9
08
00
d7
00
c1
21
06
00
e1
07
cb
4a
00
fb
04
00
04
ee
07
00
1c
ff
00
00
d0
c5
d9
db
3b
29
1e
28
cc
00
bb
ff
c3
ed
f2
00
ea
f7
07
3e
00
f6
e9
00
15
f0
2d
00
0f
fc
00
00
ed
d8
dc
e5
35
10
3b
1b
f3
00
ed
ff
13
10
01
00
f6
fe
b5
22
00
fe
e8
00
2b
1b
0b
00
17
fe
00
00
eb
dc
e3
ed
10
f9
19
32
e9
00
37
00
28
e9
0a
00
13
ff
e2
3b
00
2e
fa
00
28
fa
e5
00
e7
fd
00
00
12
0b
e6
f3
02
07
26
de
2b
00
29
00
b9
25
e7
00
01
02
f6
26
00
29
f1
00
11
ea
5f
00
e5
fe
00
00
df
f2
d0
0a
4b
31
42
21
1a
00
d0
ff
f4
ed
16
00
e5
ff
e5
43
00
04
cd
01
0e
f3
5d
00
e4
02
00
00
fb
d9
e5
e7
04
42
4c
c1
c7
00
bb
ff
f9
e5
fd
00
f0
fa
d2
e7
00
25
f1
00
1a
ff
22
00
fd
01
00
00
d1
e5
e6
f3
fc
3a
18
e7
ec
00
25
00
f6
21
0b
00
fd
04
bd
0f
00
f3
f6
00
29
1b
22
00
25
05
00
00
fe
08
0f
d1
01
3b
d7
d5
23
00
d9
01
ec
f1
02
00
11
f9
0d
f9
00
24
18
ff
36
16
f3
00
e9
ff
00
00
f1
07
31
e0
f3
f1
14
0e
f6
00
21
00
04
fa
15
00
1a
f8
19
c8
00
11
23
01
20
28
cc
00
0f
05
00
00
21
ef
10
ee
d8
f7
e7
01
26
00
fa
00
f0
32
19
00
2f
07
f4
e3
00
25
23
03
0a
14
30
00
17
00
00
00
cb
f8
08
d9
08
ef
11
2a
d6
00
13
01
10
39
12
00
18
f8
23
d9
00
2d
1f
00
2b
0f
13
00
09
01
00
00
df
ee
d5
21
0c
f7
f9
23
24
00
e0
00
e7
1b
ec
00
1c
fa
0b
07
00
2d
fc
fd
2a
15
2a
00
20
07
00
00
f2
1f
17
f8
da
23
23
1f
22
00
e8
01
ef
2f
13
00
16
fa
0c
fd
00
27
f1
fd
1e
1c
cf
00
f6
03
00
00
1c
31
34
ff
e4
fe
2f
e2
f4
00
1c
00
fc
36
ff
00
1a
fa
d0
1e
00
fa
e5
fd
17
fd
3b
00
fb
f6
00
00
e5
07
23
ce
08
dd
e7
e0
06
00
04
00
d4
e2
e6
00
10
fe
e1
2b
00
31
fb
01
12
06
eb
00
ea
03
00
00
10
15
f3
d3
0b
fd
f8
f0
f1
00
35
00
db
f2
f1
00
04
f6
d3
27
00
f7
f8
05
08
0a
de
00
21
01
00
00
01
d5
f8
0c
07
3c
13
0b
21
00
2b
00
f2
30
e7
00
05
fc
f2
fe
00
20
11
05
04
1f
eb
00
f6
f9
00
00
e3
11
e5
e4
dd
00
e2
23
f3
00
e5
00
e2
f2
09
00
12
fa
3a
ec
00
32
0d
03
1b
0f
20
00
28
0d
00
00
05
1c
e7
ef
1c
e1
1d
df
d7
00
43
00
21
0f
1d
00
15
09
e7
36
00
14
f7
fd
f4
f9
36
00
05
f8
00
00
f9
ee
e7
08
1e
16
45
12
28
00
fa
00
00
0c
e1
00
07
00
e1
20
00
e2
e7
fe
fc
fa
3b
00
28
f4
00
00
bb
17
14
1a
3c
49
05
2e
fd
00
29
00
1a
c5
0d
00
f4
fc
f0
2f
00
f6
11
ff
13
07
37
00
e2
fb
00
00
e3
e8
ff
17
0c
30
33
f8
25
00
3a
01
c7
d7
10
00
fd
09
c6
0a
00
04
02
ff
18
08
1a
00
e6
10
00
00
cd
11
fe
f2
26
f1
fc
12
2a
00
36
01
c7
c8
ff
00
0c
f5
fa
34
00
37
17
ff
1b
0d
36
00
14
fe
00
00
f9
d5
eb
d3
1a
f3
0f
05
24
00
f3
01
0b
04
0c
00
fd
08
e8
35
00
22
0f
ff
f3
0d
00
00
11
fb
00
00
cf
ed
04
11
e6
1f
df
00
fe
00
38
00
0a
0b
1d
00
04
f5
db
dd
00
22
08
00
26
03
3f
00
0a
0a
00
00
12
e5
0b
e8
19
ed
40
db
da
00
27
01
0b
01
f5
00
f4
0d
eb
10
00
f5
d7
01
19
fa
ee
00
f1
f6
00
00
16
09
e0
f0
13
00
42
34
cb
00
18
00
e7
db
ef
00
01
08
f6
f8
00
11
11
00
23
0b
f3
00
e9
01
00
00
db
e3
de
d8
ec
fe
25
30
e4
00
0f
00
cc
e0
fc
00
11
0c
1f
fb
00
07
09
fe
03
17
e4
00
f4
0b
00
00
28
eb
e1
ea
1a
ff
e6
e3
ec
00
2a
00
16
25
ee
00
12
07
44
d7
00
da
0c
02
f8
12
e9
00
e3
fa
00
00
0f
de
fb
0d
ee
30
f9
1e
19
00
1b
01
30
14
e7
00
0c
01
f2
05
00
f3
e4
03
1f
1c
08
00
01
08
00
00
e8
d5
e5
15
fb
d2
1d
ec
fc
00
fb
00
31
fb
09
00
07
f6
0c
14
00
05
0a
fe
01
1d
f2
00
00
f7
00
00
1e
f6
dc
f6
df
de
1b
33
1f
00
32
00
e2
28
de
00
0a
09
3e
02
00
ee
0d
ff
03
fd
f1
00
15
03
00
00
bc
02
d2
fc
29
34
0b
0b
16
00
05
01
00
31
0b
00
fb
00
e8
4f
01
f1
e3
00
fc
f2
42
00
1a
0b
00
00
00
dd
b5
da
0e
55
21
e5
0a
00
fa
00
c2
e7
f8
00
e5
f7
ae
16
00
21
db
04
ee
f3
e9
00
f1
05
00
00
a9
15
e8
1d
14
36
f6
24
fa
00
17
00
ef
ed
03
00
eb
fc
ed
2e
00
1e
e1
ff
19
06
f2
00
16
fe
00
00
c0
cf
ef
03
06
2a
e5
ed
cf
00
e3
01
26
d7
1a
00
05
fd
ea
fc
00
ee
05
fe
fa
03
17
00
23
fa
00
00
f2
e1
1d
0d
15
ef
2e
14
f6
00
cd
01
fd
0f
ec
00
f0
fb
0a
2b
00
1e
04
ff
f3
f5
0c
00
05
09
00
00
01
db
db
ff
0d
0f
1c
cd
d3
00
e0
00
27
04
0c
00
f1
00
2a
00
00
f7
06
00
1b
07
21
00
ff
fc
00
00
e4
d4
f1
2b
1e
f3
e6
f3
17
00
06
01
15
00
0e
00
f7
04
1b
0e
00
fc
00
ff
1a
04
14
00
fb
09
00
00
dc
0b
e2
d9
16
24
17
cf
c9
00
22
ff
e6
07
0a
00
ff
fe
ed
08
00
18
e5
01
ff
fe
f2
00
ee
01
00
00
be
c6
d3
e4
f3
ee
0f
25
f4
00
c9
01
0c
cd
fd
00
f2
fe
bc
f3
00
fa
05
00
0a
0e
f8
00
fa
ff
00
00
15
16
e8
03
e1
15
0c
0d
11
00
fa
01
22
df
f6
00
07
00
d5
fd
00
0f
fe
01
0d
08
1e
00
f5
ff
00
00
ce
e0
1b
d0
0d
2c
2b
1c
e9
00
d9
01
06
ea
fd
00
fb
ff
da
24
00
f0
f5
00
fb
fb
30
00
fc
04
00
00
c1
f4
04
c8
30
10
23
1f
09
00
ea
01
e7
d6
02
00
e4
00
f0
20
00
00
f5
00
00
f1
fc
00
f7
01
00
00
bd
e1
d6
03
0e
ff
24
ff
e6
00
f2
00
06
07
fd
00
e0
00
b5
1c
00
00
dd
00
f8
f0
3d
00
fc
00
00
00
dd
ce
ec
e1
2b
06
26
13
ce
00
cd
00
f8
e9
fa
00
e7
00
cd
16
00
f8
dc
00
ec
e3
39
00
00
00
00
00
bf
cc
e5
e8
27
2a
4b
dc
e5
00
f0
00
f4
ef
00
00
d5
00
b6
3f
00
1a
de
00
f8
e9
37
00
fa
00
00
00
c9
dc
c4
d9
42
26
38
df
e9
00
fa
00
be
ed
ff
00
d4
00
ba
54
00
0b
d9
00
eb
d7
45
00
f0
00
00
00
ba
cd
f1
c0
3c
19
45
dc
d0
00
af
00
e3
c7
02
00
cb
00
ce
75
fc
ee
c9
68
d3
b0
fb
7b
fd
a1
90
16
dc
c9
6a
00
f5
00
00
00
fc
f2
00
f8
00
00
00
ee
06
13
fb
f3
33
59
09
19
e7
51
01
0d
02
d5
ec
15
47
f8
2e
0f
29
e7
17
cb
f9
18
f5
2d
df
26
10
f7
2e
18
e2
fc
00
e5
21
ff
09
e0
0d
1a
ff
02
f3
00
01
fa
1c
c7
2d
a4
f1
e1
1b
28
32
f3
ee
28
ed
0c
4d
2f
f6
d8
17
d0
36
d1
08
26
3e
d9
f9
3c
3d
13
39
4a
bb
66
bf
4e
a0
6a
22
ac
ba
67
e9
cd
25
f5
e8
d9
61
fe
fd
00
00
00
ef
00
00
0e
00
f0
00
fc
01
fa
fc
f2
0d
27
de
21
f8
f7
fc
e4
db
39
47
01
5b
22
47
ff
0a
0a
dc
13
00
d0
00
15
ff
f4
06
ef
20
00
f0
00
0b
00
00
f2
fe
fd
00
00
ff
00
f3
fb
00
00
00
00
00
ff
11
00
00
00
12
00
fa
fb
00
00
0b
00
00
a5
36
b7
51
d9
f4
07
47
ed
1b
45
54
00
66
3f
0a
23
47
c7
6e
1c
f4
2a
01
f5
df
63
69
02
0b
0f
35
11
3a
34
44
dd
c3
4f
47
b0
1a
f5
26
00
0d
fb
d6
3d
1c
de
48
14
1e
29
6f
f8
fa
1b
60
02
26
2c
cf
3a
00
1a
07
7f
fc
a4
ed
61
17
eb
ef
f2
ba
e3
48
2d
f7
71
95
1d
0f
b6
d5
69
06
0e
00
fc
bc
e3
17
1a
d7
43
ee
52
e5
95
e1
4a
f2
d9
ea
f7
c0
fe
34
f4
3f
1f
51
ea
11
65
23
23
e6
eb
15
01
16
ee
05
ba
f1
cc
3d
cb
16
26
44
27
12
f2
fe
fa
27
3d
c3
0a
00
fa
00
10
08
00
00
00
00
03
01
00
ee
00
00
a2
49
b1
e0
a8
5a
72
53
ae
ee
db
25
00
14
6d
b9
05
ff
01
fe
03
f7
ff
fe
f4
00
01
f3
00
04
03
fa
d1
19
9e
7c
ae
e2
6d
45
e1
40
26
e2
07
52
2e
ea
fa
16
bd
32
d6
4c
55
49
19
df
0b
05
02
f8
35
a3
00
02
36
07
03
18
d4
00
18
e7
f8
00
00
d6
00
23
00
07
06
00
03
fc
02
00
00
00
00
00
00
fd
02
00
e3
30
f7
2d
e6
4a
36
5a
e9
e2
26
2f
0a
4e
4a
e0
f3
f6
ea
e0
00
03
db
00
e8
1a
ea
e3
f9
09
00
e2
fe
f7
26
6a
2b
1d
65
4c
d1
e8
68
44
f8
56
29
0f
9c
35
d0
98
aa
33
39
e2
81
f3
39
13
37
ab
e3
9e
a5
f2
cf
0c
43
91
ee
aa
53
2b
0b
ae
f7
9e
bf
56
